<unk>	0
<s>	0
</s>	0
.	-2.47299
,	-3.85061
▁Tom	-3.85617
s	-4.01421
▁I	-4.03572
▁	-4.09305
'	-4.16729
?	-4.21881
t	-4.31137
▁to	-4.47542
n	-4.5038
▁the	-4.52044
▁you	-4.70432
▁a	-4.71817
▁in	-4.8076
▁ist	-4.90861
▁is	-4.95207
▁nicht	-4.97035
e	-5.09941
en	-5.15171
Ich	-5.1798
▁zu	-5.26243
m	-5.29231
▁Sie	-5.31946
▁was	-5.32269
▁du	-5.4553
▁of	-5.45614
▁die	-5.4872
▁das	-5.50884
▁that	-5.5247
▁ich	-5.56362
ch	-5.58623
ed	-5.59824
!	-5.63329
▁ein	-5.67442
er	-5.67543
▁der	-5.73165
r	-5.73455
▁hat	-5.73938
▁Mary	-5.75438
▁The	-5.77281
▁eine	-5.80399
▁me	-5.81173
▁and	-5.8223
▁und	-5.82383
▁be	-5.85657
st	-5.87147
▁an	-5.88237
▁for	-5.8874
d	-5.89333
▁es	-5.90022
▁dass	-5.90162
▁Er	-5.90751
▁He	-5.9201
▁it	-5.94191
▁have	-5.96555
▁auf	-5.97561
ing	-5.97829
▁on	-6.03323
▁You	-6.07145
▁do	-6.08462
▁er	-6.09425
▁habe	-6.11262
▁sich	-6.11335
▁Maria	-6.11933
▁mit	-6.12593
▁mir	-6.13287
▁Das	-6.13711
▁so	-6.15319
▁sie	-6.18174
▁den	-6.1853
▁he	-6.1909
▁war	-6.19611
▁are	-6.19865
▁with	-6.21472
▁can	-6.23242
▁his	-6.2662
▁We	-6.29591
▁mich	-6.30668
▁your	-6.32554
▁my	-6.33179
▁not	-6.3382
▁this	-6.37789
▁did	-6.37809
▁Die	-6.39428
▁Wir	-6.42317
▁She	-6.42332
▁know	-6.42388
re	-6.44677
ly	-6.45228
▁Es	-6.45408
▁von	-6.47187
▁don	-6.48059
▁like	-6.49397
▁will	-6.50415
▁her	-6.52846
▁has	-6.54001
▁want	-6.54078
▁als	-6.55217
▁dem	-6.57122
▁sein	-6.58332
▁für	-6.58424
▁sind	-6.59115
ll	-6.59789
▁kann	-6.59947
▁It	-6.6179
▁Du	-6.62065
▁haben	-6.62113
▁at	-6.62422
ve	-6.63718
▁einen	-6.64217
▁him	-6.67497
▁bin	-6.67901
▁wie	-6.69329
▁aus	-6.69465
▁what	-6.69504
▁ihr	-6.7263
▁What	-6.74536
▁as	-6.7639
▁im	-6.76599
▁about	-6.77536
▁dich	-6.79764
▁um	-6.84397
▁Der	-6.84851
▁noch	-6.85054
▁diese	-6.85653
▁seine	-6.86301
▁Do	-6.86515
y	-6.895
f	-6.90248
▁Was	-6.91214
▁Thi	-6.91878
▁dir	-6.95255
▁had	-6.95284
▁up	-6.95316
▁go	-6.96159
▁uns	-6.96302
▁sehr	-6.96864
▁A	-6.97031
▁think	-6.97126
▁get	-6.9855
▁were	-6.98651
▁nach	-6.9902
▁wird	-7.00337
▁vor	-7.0046
▁am	-7.00778
▁very	-7.01841
▁meine	-7.02544
▁time	-7.03931
▁man	-7.0425
▁from	-7.04623
▁by	-7.04631
te	-7.05669
▁out	-7.05795
▁hier	-7.06464
-	-7.08142
▁all	-7.08633
▁Wie	-7.08779
▁does	-7.08974
▁here	-7.0898
▁we	-7.12221
▁über	-7.13423
▁us	-7.13867
▁etwas	-7.13871
▁one	-7.14486
▁bei	-7.17577
▁no	-7.18192
▁but	-7.18912
▁viel	-7.20381
es	-7.20993
▁she	-7.2166
▁wir	-7.21923
▁ihn	-7.22313
▁W	-7.22637
▁weiß	-7.23621
▁gut	-7.24036
▁Diese	-7.24746
▁How	-7.25031
▁there	-7.2537
o	-7.25424
▁tun	-7.26555
▁schon	-7.27156
▁My	-7.27184
▁Boston	-7.27878
▁told	-7.28611
▁"	-7.29066
▁hast	-7.29425
▁werden	-7.29535
▁wurde	-7.30446
▁they	-7.30964
▁should	-7.31583
▁keine	-7.32065
▁That	-7.33882
▁would	-7.35087
▁There	-7.37013
▁been	-7.37765
▁They	-7.38312
▁hatte	-7.39316
▁nur	-7.39424
▁S	-7.39524
l	-7.40249
▁good	-7.4025
▁mehr	-7.42701
▁said	-7.43597
▁wen	-7.47394
▁ihm	-7.47945
i	-7.48011
▁des	-7.48243
▁zum	-7.48526
▁than	-7.48785
▁werde	-7.49539
ung	-7.49946
▁Don	-7.50021
▁Why	-7.50675
▁when	-7.50766
▁„	-7.51565
▁who	-7.51817
▁deine	-7.51971
▁too	-7.52436
▁immer	-7.5343
▁never	-7.5343
▁mein	-7.53623
▁going	-7.53875
k	-7.54662
if	-7.55486
▁ver	-7.56129
▁just	-7.56298
▁car	-7.56348
▁nie	-7.57255
▁much	-7.57286
▁see	-7.57595
▁sagte	-7.57992
▁E	-7.59752
▁gehen	-7.5982
▁tell	-7.60973
▁speak	-7.61597
▁möchte	-7.62794
▁help	-7.62901
▁da	-7.62971
▁home	-7.63286
▁more	-7.63306
▁T	-7.64105
▁really	-7.64339
▁now	-7.6439
▁how	-7.6445
arum	-7.64591
▁book	-7.6647
▁Ihr	-7.67435
▁could	-7.67485
▁ge	-7.67579
▁room	-7.68775
▁make	-7.6886
▁machen	-7.69003
▁nichts	-7.70337
▁people	-7.70819
▁Geld	-7.70828
▁sagen	-7.70972
▁come	-7.71318
▁würde	-7.71602
▁work	-7.71683
▁need	-7.71981
▁un	-7.72236
▁Buch	-7.72982
▁sollte	-7.73136
▁Are	-7.73468
▁Zeit	-7.74156
▁oder	-7.74227
▁kein	-7.74951
▁John	-7.75388
▁something	-7.75389
▁euch	-7.75391
▁Wen	-7.76477
▁money	-7.76565
▁gesagt	-7.76638
▁lot	-7.76679
▁bist	-7.77513
▁Did	-7.77768
▁anything	-7.77772
▁look	-7.78088
▁Has	-7.78384
▁love	-7.78704
▁ab	-7.78747
▁ihre	-7.78944
▁muss	-7.79875
▁doing	-7.8036
a	-7.80984
▁Ein	-7.8161
▁got	-7.82074
▁day	-7.82288
▁some	-7.82606
▁gerade	-7.82665
▁take	-7.83742
▁old	-7.83932
▁eat	-7.8436
in	-7.84968
▁back	-7.85216
▁können	-7.85278
▁Leben	-7.85684
▁heute	-7.86537
▁made	-7.86654
▁auch	-7.86794
▁Wo	-7.87112
▁viele	-7.87472
w	-7.87513
▁Please	-7.87827
▁before	-7.87827
▁Wer	-7.87874
▁gibt	-7.87977
▁over	-7.88059
▁wollte	-7.88063
▁say	-7.88428
▁drei	-7.89159
▁wieder	-7.89781
▁C	-7.90375
▁Who	-7.90457
▁mag	-7.90513
▁still	-7.9052
▁school	-7.90525
▁Hause	-7.91004
▁new	-7.9141
▁play	-7.91565
▁sei	-7.92563
▁way	-7.92864
b	-7.9331
▁bitte	-7.9356
▁well	-7.93579
u	-7.95034
al	-7.95161
▁any	-7.95497
▁or	-7.95755
▁French	-7.96107
▁jetzt	-7.96107
▁right	-7.96108
▁thought	-7.96297
h	-7.97413
▁hätte	-7.97564
▁kam	-7.97586
▁einmal	-7.97667
▁life	-7.99028
▁last	-7.99182
▁many	-7.99289
▁Mein	-7.99642
ge	-7.99714
▁long	-8.00189
c	-8.00195
▁dein	-8.00495
▁wirklich	-8.0052
▁left	-8.0052
▁give	-8.00524
▁asked	-8.00777
▁again	-8.02035
▁better	-8.0204
▁house	-8.02076
▁Auto	-8.02905
le	-8.03176
▁name	-8.03962
▁mal	-8.04582
▁Arbeit	-8.04753
▁other	-8.04838
aber	-8.04933
▁always	-8.05136
▁Tag	-8.05413
lich	-8.05566
▁Vater	-8.0635
▁P	-8.06518
▁konnte	-8.06723
▁three	-8.06723
▁geht	-8.06724
▁Johannes	-8.06726
▁letzte	-8.06757
▁ob	-8.07749
▁Be	-8.07771
▁years	-8.08101
ok	-8.08135
▁Ihnen	-8.08339
▁today	-8.08403
▁einfach	-8.08462
▁Where	-8.08465
▁our	-8.0855
▁gerne	-8.08657
ber	-8.09178
be	-8.09295
ie	-8.097
▁Französisch	-8.09887
▁besser	-8.0989
▁Hav	-8.0995
▁wissen	-8.09973
▁In	-8.10384
▁glaube	-8.10514
▁zur	-8.10586
▁Meine	-8.10891
▁alle	-8.1107
▁father	-8.11643
▁saw	-8.11645
▁Schule	-8.11688
▁kommt	-8.11946
out	-8.11957
▁bis	-8.11988
▁B	-8.13271
▁must	-8.13383
▁sehen	-8.1381
▁waren	-8.13971
▁fast	-8.14696
▁two	-8.15061
▁When	-8.15062
▁lange	-8.15157
▁Can	-8.15171
▁K	-8.15172
um	-8.15423
▁No	-8.15832
se	-8.15971
▁doch	-8.1607
▁keinen	-8.16764
▁zwei	-8.1681
▁Let	-8.17354
▁meinen	-8.17879
▁talk	-8.17963
▁done	-8.18478
▁English	-8.18601
▁helfen	-8.18619
▁wo	-8.19197
▁dieses	-8.2006
▁getan	-8.20089
▁Zimmer	-8.20419
▁learn	-8.20419
▁müssen	-8.20492
▁Man	-8.2075
g	-8.21074
▁Jahre	-8.21506
▁put	-8.22277
▁already	-8.22281
▁away	-8.22366
▁gesehen	-8.2239
▁wanted	-8.22409
▁into	-8.22476
ig	-8.22488
▁won	-8.23458
▁sure	-8.2422
▁macht	-8.24477
▁alles	-8.24595
▁ever	-8.24873
▁Kinder	-8.25105
▁went	-8.25211
▁Mann	-8.25225
▁off	-8.25301
▁friends	-8.25472
ohne	-8.25485
▁An	-8.25576
p	-8.26044
▁first	-8.26081
▁little	-8.26081
▁down	-8.26086
▁where	-8.26119
▁durch	-8.26141
▁every	-8.26178
▁ging	-8.26226
z	-8.2639
▁könnte	-8.27046
▁Japan	-8.27176
▁p	-8.27263
▁F	-8.2797
▁sprechen	-8.28331
on	-8.28827
▁Welt	-8.2912
▁Mutter	-8.2977
▁believe	-8.30042
▁yesterday	-8.30042
▁Bitte	-8.30042
▁such	-8.30884
▁G	-8.31207
el	-8.31326
▁use	-8.31385
▁alt	-8.31432
us	-8.3182
▁morgen	-8.32083
▁why	-8.32084
▁zurück	-8.32111
▁door	-8.32377
▁their	-8.32529
▁Hab	-8.32747
▁Ihre	-8.32932
▁understand	-8.34168
▁children	-8.34168
▁mother	-8.34169
▁Land	-8.34173
▁Lass	-8.34191
▁gestern	-8.34263
▁gemacht	-8.34334
ar	-8.34348
▁year	-8.34471
▁Da	-8.34772
▁wäre	-8.34816
ting	-8.35149
▁soll	-8.35312
▁N	-8.35358
▁Haus	-8.35535
▁sah	-8.3567
▁Frau	-8.35693
▁stay	-8.36035
▁Englisch	-8.36294
▁next	-8.36294
▁tomorrow	-8.36294
▁davon	-8.36294
▁buy	-8.36314
▁nothing	-8.36318
▁Menschen	-8.3644
▁best	-8.36497
▁after	-8.36597
sch	-8.37119
▁w	-8.37287
▁ask	-8.38256
:	-8.38461
▁night	-8.3847
."	-8.3865
▁soon	-8.38717
▁So	-8.38799
▁ganze	-8.38968
▁lassen	-8.38991
▁Mi	-8.3932
▁often	-8.39485
th	-8.3993
▁Leute	-8.40691
▁came	-8.41258
▁Jahr	-8.41682
▁große	-8.42208
▁schnell	-8.42627
▁remember	-8.42963
▁world	-8.42964
▁Kann	-8.4297
each	-8.43432
an	-8.43813
▁k	-8.44631
▁Uhr	-8.44888
ten	-8.45568
or	-8.45614
▁lost	-8.45992
▁M	-8.46157
est	-8.46568
▁sagt	-8.46572
▁kannst	-8.47291
▁them	-8.47365
▁great	-8.47669
▁damit	-8.47681
▁His	-8.47696
▁unter	-8.47951
▁Ver	-8.47952
▁live	-8.47999
▁essen	-8.48206
cause	-8.48263
▁dog	-8.48511
zu	-8.48874
de	-8.49025
▁kommen	-8.4919
▁mind	-8.49634
▁own	-8.4969
▁Tür	-8.4999
▁read	-8.50056
▁alone	-8.50108
▁kill	-8.50109
▁bought	-8.50112
▁may	-8.50134
▁dann	-8.50138
▁happened	-8.50236
▁je	-8.50377
▁gab	-8.50404
▁sister	-8.50583
▁hin	-8.50726
▁ga	-8.5132
▁Hund	-8.51962
▁ganz	-8.52071
▁allein	-8.52074
▁call	-8.5226
▁happy	-8.52608
▁country	-8.52611
▁spricht	-8.52795
ur	-8.52831
▁All	-8.53433
▁thing	-8.53468
▁sicher	-8.53936
▁hard	-8.548
▁keep	-8.54896
▁feel	-8.54916
▁wish	-8.55181
▁wollen	-8.55424
▁warum	-8.55536
▁looking	-8.55795
▁please	-8.56003
▁friend	-8.56296
▁Schwester	-8.5656
▁things	-8.57038
▁musst	-8.57647
▁Mädchen	-8.57804
▁job	-8.57804
▁knew	-8.57804
▁zusammen	-8.57804
▁everything	-8.57808
▁dort	-8.5785
▁let	-8.58173
▁habt	-8.58192
▁andere	-8.58433
▁Alle	-8.58452
▁c	-8.58455
not	-8.58621
▁groß	-8.58684
ion	-8.58703
▁Mal	-8.58837
▁Hat	-8.58998
leicht	-8.59852
▁beautiful	-8.60507
▁leave	-8.60508
▁spät	-8.60509
▁true	-8.60532
▁kind	-8.60629
▁wants	-8.61026
▁plan	-8.61395
▁sagten	-8.61571
"	-8.61623
▁weg	-8.61805
?"	-8.61995
▁wusste	-8.62106
at	-8.62411
▁walk	-8.62613
▁knows	-8.62798
▁willst	-8.63083
▁wrong	-8.63288
▁couldn	-8.63387
▁Nacht	-8.64071
▁language	-8.64261
▁Will	-8.65568
▁seit	-8.66062
▁bad	-8.66099
▁gekauft	-8.66141
▁parents	-8.66141
▁Eltern	-8.66143
▁open	-8.66146
▁reading	-8.66442
▁Bis	-8.66787
ce	-8.66872
▁unsere	-8.66925
able	-8.67021
▁vo	-8.67162
▁idea	-8.67167
▁boy	-8.67215
▁person	-8.67295
▁schwer	-8.68742
▁Eine	-8.68918
▁water	-8.69083
▁answer	-8.69084
▁which	-8.69128
▁Would	-8.69137
▁oft	-8.69344
▁glücklich	-8.69362
▁called	-8.69528
▁jeden	-8.6969
chen	-8.69725
▁died	-8.70078
▁sollen	-8.70108
▁says	-8.70171
▁teacher	-8.70325
▁schön	-8.70725
▁gute	-8.71129
ist	-8.71432
▁Li	-8.7151
▁Freunde	-8.71528
▁gern	-8.7153
il	-8.71718
▁1	-8.71831
▁even	-8.71851
▁Kind	-8.71864
▁fell	-8.72108
▁selbst	-8.72113
▁gehört	-8.72113
▁yet	-8.72114
▁enough	-8.72114
▁Weiß	-8.72133
▁spielen	-8.72884
▁find	-8.73015
▁brother	-8.73324
▁late	-8.7442
▁these	-8.74874
▁Wan	-8.74907
▁stop	-8.75214
▁morning	-8.75238
▁Angst	-8.75238
▁found	-8.75239
▁family	-8.75243
▁Wasser	-8.75278
▁May	-8.7529
▁cold	-8.75323
▁fertig	-8.75324
schen	-8.7538
ü	-8.75473
▁sieht	-8.75522
▁Als	-8.75556
▁Problem	-8.75641
▁talking	-8.75692
▁Sag	-8.75805
▁Does	-8.75811
▁word	-8.76174
.“	-8.76512
▁girl	-8.7656
▁denn	-8.77161
▁H	-8.77234
▁L	-8.77334
▁erste	-8.78067
▁rain	-8.78214
▁visit	-8.78438
▁genug	-8.78464
▁big	-8.78476
▁wear	-8.78595
▁started	-8.78665
▁Freund	-8.78691
▁bed	-8.78738
▁most	-8.7879
▁re	-8.7926
▁gar	-8.79264
▁ihren	-8.79542
▁wer	-8.79631
▁week	-8.79778
▁problem	-8.79884
▁hear	-8.80048
▁War	-8.81321
▁Alice	-8.81798
ation	-8.81817
▁Familie	-8.81831
▁married	-8.81832
▁almo	-8.81841
▁Mr	-8.82271
paar	-8.82291
▁young	-8.82508
▁geben	-8.82702
?“	-8.83227
▁picture	-8.83267
▁likes	-8.83306
▁recht	-8.83309
▁looks	-8.83553
▁Brief	-8.83949
▁Straße	-8.84029
▁Sprache	-8.84176
▁denke	-8.84205
▁Wort	-8.84458
▁far	-8.84854
▁write	-8.84857
▁both	-8.84863
▁show	-8.84937
zt	-8.85189
▁seem	-8.85216
▁sollten	-8.85234
▁matter	-8.85245
▁station	-8.85252
▁anyone	-8.85253
▁train	-8.85263
▁busy	-8.85326
▁waiting	-8.85384
▁Aus	-8.85402
since	-8.85406
▁light	-8.85522
▁heard	-8.85612
▁As	-8.85769
▁nahm	-8.85934
ne	-8.86443
“	-8.87016
▁hand	-8.87052
▁U	-8.87096
▁g	-8.87207
▁Je	-8.88252
▁Sch	-8.88577
▁Ge	-8.88583
▁German	-8.88713
▁sonder	-8.88752
▁Lehrer	-8.88793
▁Elke	-8.88817
▁Gib	-8.88817
▁scheint	-8.88817
▁beschäftigt	-8.88817
▁Abend	-8.88817
▁tried	-8.88826
▁darüber	-8.88832
▁around	-8.88836
▁woman	-8.88836
▁dachte	-8.8884
▁while	-8.88858
▁spend	-8.88881
▁mean	-8.88955
▁weiter	-8.89087
▁gekommen	-8.89164
▁ten	-8.89288
▁wohl	-8.89706
▁Ha	-8.90268
I	-8.90738
▁Junge	-8.91453
▁Frage	-8.91497
ic	-8.91587
▁Tage	-8.91885
sche	-8.92034
den	-8.92109
▁stand	-8.92335
▁gewesen	-8.9252
▁hope	-8.92521
▁food	-8.92522
▁Welche	-8.92523
▁hair	-8.92524
▁Bruder	-8.92524
▁eure	-8.92529
▁Morgen	-8.92558
▁dazu	-8.92597
▁wahr	-8.9269
▁kaufen	-8.92714
▁tut	-8.92779
▁Herr	-8.92803
ä	-8.92847
▁voll	-8.92996
▁lernen	-8.93021
▁bleiben	-8.93025
▁fahren	-8.93138
▁lang	-8.93509
▁letter	-8.9444
▁Woche	-8.95108
it	-8.95619
▁passiert	-8.95709
▁Komm	-8.96025
iemand	-8.96347
▁reason	-8.96366
▁Bild	-8.96367
▁Stadt	-8.96368
▁yourself	-8.96368
▁class	-8.96368
▁Japanese	-8.96368
▁Fehler	-8.96401
▁beide	-8.96641
▁met	-8.96677
▁Vor	-8.96689
ste	-8.9673
▁Augen	-8.96747
▁bekommen	-8.9679
▁Namen	-8.96887
▁seen	-8.96988
▁gleich	-8.97279
▁bat	-8.97314
▁Sin	-8.97327
▁leben	-8.97439
▁On	-8.97765
ous	-8.97887
▁Sei	-8.97979
▁drink	-8.9812
▁Viel	-8.98415
▁seems	-8.98469
▁question	-8.98486
▁place	-8.985
▁nächste	-8.98559
▁Seine	-8.98764
▁lives	-8.99374
▁listen	-9.00237
ould	-9.00267
▁Bett	-9.00302
▁child	-9.00363
▁coffee	-9.00366
▁through	-9.00366
▁Grund	-9.00366
▁steht	-9.00366
▁early	-9.00367
▁together	-9.00367
▁Kaffee	-9.00367
▁death	-9.00367
▁himself	-9.00367
▁else	-9.00368
▁usual	-9.00373
▁small	-9.00375
▁zehn	-9.00383
▁Liebe	-9.00391
▁wonder	-9.00395
▁gegessen	-9.00407
▁arrived	-9.0045
▁party	-9.00459
▁verloren	-9.00623
▁R	-9.00706
▁hören	-9.00719
▁Sam	-9.00845
▁gegangen	-9.00904
▁reden	-9.00959
▁run	-9.01005
▁weit	-9.01018
ever	-9.01085
▁end	-9.01116
▁bereits	-9.01399
▁neuen	-9.01512
uch	-9.01559
weil	-9.01574
▁wirst	-9.02251
▁Your	-9.02446
ther	-9.02495
▁cat	-9.02723
ry	-9.02727
▁glauben	-9.03189
▁broke	-9.03374
▁To	-9.03619
▁Jahren	-9.03973
less	-9.03984
▁Ou	-9.04147
▁sleep	-9.04152
▁try	-9.04299
as	-9.04443
▁Zu	-9.04493
▁Zug	-9.04511
▁Auf	-9.04531
▁afraid	-9.04533
▁easy	-9.04534
▁few	-9.04534
▁same	-9.04535
▁liegt	-9.04536
▁Tell	-9.04538
▁überhaupt	-9.04538
▁fragte	-9.04583
▁möglich	-9.04649
▁Sohn	-9.04669
▁erst	-9.04721
▁coming	-9.04774
▁meeting	-9.04784
▁lesen	-9.04812
▁Weg	-9.04819
ver	-9.04888
▁sprach	-9.04907
▁einige	-9.04908
kommen	-9.04976
▁red	-9.05153
ut	-9.05711
▁Dr	-9.06363
▁wouldn	-9.06434
▁ran	-9.07232
ach	-9.07237
▁reich	-9.0758
▁Hand	-9.0782
▁gehe	-9.07999
▁jemand	-9.08377
ought	-9.08466
▁früh	-9.0853
▁drive	-9.08539
▁change	-9.08596
▁meet	-9.0884
▁Australia	-9.08881
▁accident	-9.08881
▁phone	-9.08881
▁Bücher	-9.08881
▁month	-9.08881
▁along	-9.08881
▁wife	-9.08882
▁Everyone	-9.08882
▁might	-9.08891
▁spielt	-9.08907
▁starb	-9.08914
▁pay	-9.08946
▁books	-9.09222
▁bus	-9.09808
▁brauchen	-9.09876
ter	-9.09915
▁loved	-9.09918
▁hours	-9.10091
▁turn	-9.10211
der	-9.10452
fe	-9.10759
▁days	-9.10951
▁part	-9.11002
▁being	-9.1101
▁f	-9.11798
▁son	-9.11915
ler	-9.11956
▁win	-9.12134
mal	-9.12197
▁St	-9.12407
▁fire	-9.13144
▁Feuer	-9.13426
▁Nachricht	-9.13426
▁anymore	-9.13426
▁dinner	-9.13426
▁dabei	-9.13426
▁tired	-9.13426
▁park	-9.13427
▁Spaß	-9.13427
▁follow	-9.13428
▁eigene	-9.13428
▁kiss	-9.13428
▁Geschichte	-9.13428
▁Australien	-9.13429
▁nice	-9.13434
▁daran	-9.13437
dem	-9.13439
▁Ende	-9.13451
▁Raum	-9.13472
▁promise	-9.13473
▁large	-9.13484
▁dress	-9.13574
▁whole	-9.13595
erweise	-9.13753
▁ihrer	-9.13901
▁bald	-9.14137
ine	-9.14193
▁Könnte	-9.14203
▁halten	-9.14758
▁Spiel	-9.14777
▁unti	-9.14834
▁musste	-9.14886
sten	-9.1519
▁bring	-9.15435
▁Her	-9.15706
▁wurden	-9.15845
▁pass	-9.15924
▁dis	-9.16079
ra	-9.16393
▁Nach	-9.17094
isch	-9.17237
▁br	-9.17442
▁Ko	-9.17604
▁Un	-9.1799
▁Some	-9.18063
▁fünf	-9.18181
▁Fenster	-9.18188
▁getroffen	-9.18188
▁high	-9.18188
▁music	-9.18188
▁travel	-9.18189
▁gefällt	-9.18202
▁einzige	-9.18227
▁half	-9.18322
▁krank	-9.18492
▁face	-9.18542
▁früher	-9.18575
▁sat	-9.18584
▁once	-9.18607
▁Preis	-9.18677
em	-9.18776
rew	-9.18847
ant	-9.19305
▁care	-9.19628
▁lebt	-9.19691
▁los	-9.1992
▁able	-9.20046
▁anderen	-9.20329
▁3	-9.20363
ies	-9.2049
gehen	-9.20498
0	-9.21051
A	-9.21079
▁deiner	-9.21098
gen	-9.21831
▁Idee	-9.21936
▁brauche	-9.22053
▁richtig	-9.22122
▁kenne	-9.22177
▁office	-9.22844
▁ja	-9.23057
▁Fuß	-9.23188
▁important	-9.23189
▁Menge	-9.23189
▁myself	-9.2319
▁favorite	-9.2319
▁wünschte	-9.23195
▁fun	-9.23197
▁saß	-9.23199
▁Reise	-9.23214
▁police	-9.23229
▁genau	-9.23233
▁währen	-9.23236
▁Tisch	-9.23241
▁vergessen	-9.23242
▁doctor	-9.23253
ment	-9.23279
▁Licht	-9.2328
▁bestimmt	-9.23311
▁gesprochen	-9.23329
▁Geh	-9.23346
▁ready	-9.23403
▁erinnern	-9.2352
▁side	-9.23597
▁lived	-9.23787
▁minutes	-9.24008
▁worden	-9.24154
▁seid	-9.24232
ng	-9.24411
▁pen	-9.24457
ige	-9.24477
▁eyes	-9.24486
los	-9.24664
▁students	-9.24688
▁Rat	-9.24913
▁alte	-9.25085
▁helped	-9.25092
ir	-9.25278
▁jung	-9.25427
▁neue	-9.25856
▁act	-9.26049
▁heart	-9.26111
▁leicht	-9.26188
▁hatten	-9.26258
▁needs	-9.26419
▁welche	-9.26438
▁window	-9.2644
▁Sein	-9.26867
▁haven	-9.27139
▁verstehe	-9.27363
▁hörte	-9.27463
ich	-9.27761
▁pro	-9.28107
▁klein	-9.2833
▁rich	-9.28355
▁Ju	-9.28437
▁street	-9.28451
▁Bahnhof	-9.28452
▁Wagen	-9.28452
▁Monat	-9.28452
▁enjoy	-9.28452
▁story	-9.28452
▁Musik	-9.28453
▁hoffe	-9.28453
▁Nobody	-9.28461
▁someone	-9.28465
▁Würde	-9.28493
▁Hilfe	-9.28503
▁gegen	-9.28506
ab	-9.28579
▁Bob	-9.28617
▁ent	-9.28626
▁tak	-9.28669
▁gelesen	-9.28696
▁lieber	-9.28742
▁beste	-9.28789
▁under	-9.28791
▁finde	-9.28797
▁Für	-9.28836
▁Heut	-9.28841
▁Com	-9.29028
▁catch	-9.29245
▁Stunden	-9.29546
▁talked	-9.29606
▁Bei	-9.29675
▁longer	-9.29724
▁ra	-9.29906
am	-9.30186
mlich	-9.30213
man	-9.30334
ei	-9.30446
▁unser	-9.30618
▁th	-9.30999
▁sit	-9.31928
▁sentence	-9.32113
auf	-9.32149
▁10	-9.32164
ated	-9.32688
▁hätten	-9.32743
▁Stunde	-9.32866
▁komme	-9.33001
zeit	-9.33003
quite	-9.33156
▁niemand	-9.33411
▁leid	-9.33438
▁Habe	-9.33543
▁sing	-9.33586
▁jede	-9.33815
▁Mit	-9.33908
▁free	-9.33969
▁zie	-9.33995
▁Büro	-9.34007
▁TV	-9.34007
▁gefunden	-9.34007
▁living	-9.34007
▁trouble	-9.34007
▁verdient	-9.34007
▁paper	-9.34007
▁sofort	-9.34007
▁crazy	-9.34007
▁Gesicht	-9.34007
▁another	-9.34007
▁sense	-9.34008
▁glad	-9.34008
▁geschrieben	-9.34008
▁müde	-9.34009
▁prefer	-9.34009
▁truth	-9.34011
▁poor	-9.34012
▁pretty	-9.34016
▁wohnt	-9.34021
▁those	-9.34028
▁quickly	-9.3403
▁sick	-9.34034
▁table	-9.34054
▁Bus	-9.34054
▁tall	-9.34065
▁possible	-9.34096
▁front	-9.34164
▁Essen	-9.34217
▁watching	-9.34238
ring	-9.34265
▁ließ	-9.34276
▁trying	-9.34356
▁weniger	-9.34359
▁wenig	-9.34381
▁hot	-9.34491
ische	-9.34514
▁schreiben	-9.34644
▁American	-9.34699
lo	-9.35
▁mak	-9.35058
▁saying	-9.35121
ty	-9.35245
▁versucht	-9.35422
▁nehmen	-9.35683
bar	-9.35791
▁con	-9.35907
heit	-9.36447
ma	-9.37028
▁co	-9.37408
led	-9.37459
▁dream	-9.37634
ure	-9.38122
gel	-9.38208
so	-9.38248
▁de	-9.38495
▁ex	-9.38632
▁Katze	-9.38693
▁versuchte	-9.38721
▁began	-9.38741
ite	-9.38828
ieren	-9.38856
▁Hör	-9.3887
▁Deutsch	-9.39185
▁kleine	-9.39233
▁move	-9.39697
▁difficult	-9.39877
▁Wahrheit	-9.39889
▁birthday	-9.3989
▁breakfast	-9.3989
▁company	-9.3989
▁darauf	-9.3989
▁number	-9.3989
▁Geburtstag	-9.3989
▁angry	-9.3989
▁Polizei	-9.3989
▁near	-9.3989
▁forgot	-9.39891
▁dead	-9.39895
▁solche	-9.39898
▁six	-9.39901
▁New	-9.39903
▁Unser	-9.39905
▁worth	-9.39908
▁Bring	-9.39925
▁invit	-9.39929
▁road	-9.39951
▁deal	-9.39962
▁Sorgen	-9.39996
schien	-9.40032
▁Give	-9.40039
▁arm	-9.40125
▁lie	-9.40132
▁gone	-9.4014
▁schwimmen	-9.40182
▁Minuten	-9.40274
▁fing	-9.40286
▁five	-9.40301
▁order	-9.40461
▁Ob	-9.40511
▁walked	-9.40719
ungen	-9.40879
▁goes	-9.409
▁air	-9.40982
▁begann	-9.41049
▁verstehen	-9.41285
▁working	-9.41293
▁start	-9.41634
ben	-9.41884
▁allem	-9.41932
op	-9.42225
ity	-9.42336
▁denken	-9.42364
▁less	-9.42488
▁finden	-9.42658
▁Viele	-9.42871
he	-9.42956
ein	-9.43885
hin	-9.43944
iert	-9.44032
▁Regen	-9.44071
nd	-9.44122
▁game	-9.44143
▁Um	-9.44185
▁tree	-9.44213
▁student	-9.44285
▁hurt	-9.44321
ia	-9.44376
▁machte	-9.4508
icht	-9.4515
▁wichtig	-9.45375
fter	-9.45448
wegen	-9.45488
▁neues	-9.45506
▁watch	-9.4554
▁braucht	-9.45552
ende	-9.45795
▁snow	-9.45839
▁study	-9.45874
ful	-9.4596
▁teach	-9.4596
▁health	-9.46028
▁Whi	-9.46096
▁wait	-9.46111
kept	-9.46129
▁19	-9.46134
▁swim	-9.46138
▁advice	-9.46139
▁geworden	-9.46139
▁lunch	-9.46139
▁Glaub	-9.46139
▁völlig	-9.46139
▁Antwort	-9.4614
▁hungry	-9.4614
▁trip	-9.4614
▁kaum	-9.4614
▁sorry	-9.4614
▁Tatoeba	-9.46144
▁Abendessen	-9.46145
▁chance	-9.46145
▁suit	-9.46148
▁completely	-9.46155
▁gebeten	-9.46157
▁dafür	-9.46164
▁shoes	-9.46167
▁finally	-9.46176
▁probab	-9.46178
▁Pass	-9.46186
▁Bier	-9.46235
▁miss	-9.46241
▁Take	-9.46291
▁thirty	-9.46317
▁Germany	-9.46323
▁sound	-9.46324
▁Meinung	-9.46386
▁past	-9.46392
▁trägt	-9.46483
▁pick	-9.46548
ck	-9.46678
▁gefallen	-9.4668
▁sonst	-9.46686
▁d	-9.46795
!“	-9.46808
▁Na	-9.47011
ance	-9.47146
▁quit	-9.47157
▁per	-9.4728
▁mistakes	-9.47414
hose	-9.47967
▁würdest	-9.47972
▁O	-9.48124
▁news	-9.48373
▁frei	-9.48501
▁Dar	-9.48772
mals	-9.48868
▁Th	-9.49448
▁Freundin	-9.49811
▁sch	-9.50312
ick	-9.50506
ue	-9.50745
▁Alles	-9.50918
▁hour	-9.50968
S	-9.5097
came	-9.51056
▁schlafen	-9.51229
na	-9.51279
▁liebe	-9.5152
▁Sonne	-9.51602
▁ihnen	-9.51906
un	-9.51963
▁Art	-9.52133
▁Lieblings	-9.52248
ied	-9.52253
▁close	-9.52527
▁bevor	-9.52626
▁König	-9.52799
▁Fahrrad	-9.52806
▁Gesundheit	-9.52806
▁brauchst	-9.52806
▁homework	-9.52806
▁kennengelernt	-9.52806
▁verliebt	-9.52806
▁price	-9.52806
▁Park	-9.52806
▁Tasche	-9.52806
▁machst	-9.52807
▁schlief	-9.52807
▁Schlüssel	-9.52808
▁cake	-9.52809
▁Gott	-9.52812
▁Deutschland	-9.52815
▁fern	-9.52829
▁bag	-9.5283
▁Even	-9.52835
▁hinter	-9.52846
os	-9.52903
▁Mach	-9.52912
verything	-9.52924
▁forget	-9.52953
▁normal	-9.52997
▁finished	-9.53006
▁kalt	-9.53123
▁animals	-9.53265
les	-9.53486
ug	-9.53601
▁Erde	-9.53676
ud	-9.53696
▁ago	-9.53751
▁Wein	-9.53972
decided	-9.53987
vi	-9.54072
▁set	-9.54123
cy	-9.54265
▁hättest	-9.54318
▁Film	-9.54529
▁age	-9.54739
▁Jungen	-9.5509
▁Sinn	-9.55097
▁its	-9.55259
▁Tu	-9.55549
▁Get	-9.55553
▁20	-9.55571
▁seien	-9.55825
cal	-9.55928
ik	-9.56216
ock	-9.56977
ip	-9.57337
land	-9.57397
▁Haare	-9.57433
▁happen	-9.57663
ang	-9.57663
turned	-9.57754
▁land	-9.5779
id	-9.57812
ish	-9.57851
▁movie	-9.57976
▁bereit	-9.58048
▁eye	-9.58095
▁etwa	-9.58134
▁allen	-9.58138
wohl	-9.58184
ke	-9.58232
▁Ab	-9.58265
▁m	-9.58278
▁Sache	-9.58771
▁mache	-9.58837
her	-9.58908
▁leg	-9.58915
▁Marias	-9.59052
ay	-9.59211
▁Soll	-9.59455
teil	-9.59464
▁trust	-9.59573
▁Mar	-9.59636
▁fiel	-9.59657
▁ill	-9.59735
▁beer	-9.59863
▁discuss	-9.59928
▁Ex	-9.59931
▁moment	-9.59931
▁Satz	-9.59932
▁Glück	-9.59949
▁human	-9.59949
▁gelernt	-9.59949
▁twenty	-9.59949
▁Tochter	-9.59949
▁smile	-9.59949
▁blind	-9.59949
▁vorbei	-9.59949
▁Person	-9.59949
▁besteht	-9.5995
▁Lust	-9.5995
▁länger	-9.5995
▁älter	-9.59951
▁spent	-9.59955
▁dangerous	-9.59955
▁fand	-9.59959
▁clothes	-9.5996
▁Hier	-9.59962
▁Unfall	-9.59963
▁Jane	-9.59964
▁caught	-9.59966
▁Schwierigkeiten	-9.59974
▁Party	-9.59976
▁Hausaufgaben	-9.59997
▁fest	-9.60002
▁verrückt	-9.60018
▁behind	-9.60021
▁Dollar	-9.60025
▁different	-9.60026
▁Schau	-9.60105
▁darf	-9.60156
▁Plan	-9.60172
▁Danke	-9.60204
▁stopp	-9.60247
▁Jeder	-9.60252
▁song	-9.60339
▁check	-9.60342
lei	-9.60382
▁arbeiten	-9.60438
▁Ma	-9.60561
▁gegeben	-9.60588
▁stark	-9.60719
ken	-9.60736
▁wine	-9.60994
▁bekannt	-9.61018
▁befinde	-9.61071
ap	-9.6143
▁Schuhe	-9.61502
▁la	-9.62072
▁bringt	-9.62133
▁Fragen	-9.62503
is	-9.62742
uck	-9.63206
und	-9.63266
▁sun	-9.63343
▁Stimme	-9.63535
▁nu	-9.63543
▁D	-9.63781
▁hands	-9.63883
ight	-9.6397
▁Lo	-9.63993
▁words	-9.64342
▁pai	-9.64345
lang	-9.64364
v	-9.64569
▁comes	-9.64898
▁Sa	-9.65578
cross	-9.65646
▁cut	-9.65659
▁daughter	-9.65667
▁Dinge	-9.66408
ha	-9.66579
▁schlechte	-9.66605
▁ausge	-9.66723
▁frage	-9.66759
ger	-9.66897
ive	-9.66965
▁expect	-9.66967
▁tat	-9.67041
▁hielt	-9.67199
▁fish	-9.67356
▁2	-9.67466
▁mine	-9.67559
▁wro	-9.67632
▁China	-9.67641
▁Glas	-9.67641
▁Klavier	-9.67641
▁Telefon	-9.67641
▁decision	-9.67641
▁draußen	-9.67641
▁interessiert	-9.67641
▁piano	-9.67641
▁river	-9.67641
▁stupid	-9.67641
▁Keep	-9.67641
▁gebracht	-9.67641
▁horse	-9.67641
▁store	-9.67641
▁Kuchen	-9.67641
▁Frühstück	-9.67642
▁Flugzeug	-9.67642
▁langsam	-9.67643
▁gefährlich	-9.67643
▁doubt	-9.67643
▁lässt	-9.67644
▁nett	-9.67645
having	-9.67645
▁Prüfung	-9.67645
▁dollars	-9.67645
▁Fluss	-9.67646
▁Kopf	-9.67647
▁Laden	-9.67647
▁treffen	-9.67651
▁Unter	-9.67655
▁wall	-9.67656
▁dance	-9.67665
▁laut	-9.67666
▁Verein	-9.67669
▁outside	-9.67673
▁tragen	-9.6768
▁besuchen	-9.67684
▁redet	-9.67689
▁bit	-9.6769
▁außer	-9.67692
▁common	-9.67723
▁point	-9.67723
▁become	-9.67726
▁Baum	-9.67733
▁darum	-9.67766
▁Wissen	-9.67785
▁würden	-9.6779
▁And	-9.67799
▁God	-9.67848
▁gewöhnlich	-9.67877
▁anders	-9.67953
igten	-9.68019
▁Seite	-9.68152
▁head	-9.68195
▁wash	-9.68197
▁enter	-9.68211
▁trinken	-9.68267
▁ice	-9.68288
ritten	-9.68289
▁bo	-9.68381
▁herum	-9.68424
▁Co	-9.68472
▁5	-9.68566
▁Und	-9.68567
▁either	-9.68592
▁full	-9.6878
▁erzählt	-9.68864
▁tra	-9.68915
▁Macht	-9.69265
felt	-9.69298
▁warten	-9.69537
▁offer	-9.69538
▁kennen	-9.69676
▁warm	-9.69741
sp	-9.70398
machen	-9.70942
legen	-9.71036
ol	-9.7143
▁questions	-9.71431
▁schöne	-9.7149
ö	-9.7153
ta	-9.71538
▁passt	-9.71653
cuse	-9.71873
▁wert	-9.71887
▁mo	-9.71914
000	-9.71921
▁b	-9.7266
ow	-9.72995
▁languages	-9.73019
▁Lebens	-9.73032
▁Po	-9.73255
stehen	-9.73269
▁arbeitete	-9.73322
▁box	-9.7345
hn	-9.73589
▁Ba	-9.73654
1	-9.73822
▁key	-9.73906
▁joke	-9.73964
ical	-9.74053
▁wor	-9.74131
E	-9.74186
3	-9.74198
▁whe	-9.74692
▁Name	-9.74852
▁sehe	-9.74856
▁tea	-9.75278
▁Mensch	-9.75377
▁lose	-9.75495
▁explain	-9.75571
▁agree	-9.7567
ally	-9.75709
ah	-9.75717
zahl	-9.75785
▁weißt	-9.7582
▁glass	-9.75892
▁Angelegenheit	-9.75975
▁Eichhörnchen	-9.75975
▁Entschuldige	-9.75975
▁Garten	-9.75975
▁Paris	-9.75975
▁Schüler	-9.75975
▁Selbst	-9.75975
▁bicycle	-9.75975
▁certain	-9.75975
▁course	-9.75975
▁exactly	-9.75975
▁geheiratet	-9.75975
▁gestohlen	-9.75975
▁gestorben	-9.75975
▁kitchen	-9.75975
▁opinion	-9.75975
▁present	-9.75975
▁quiet	-9.75975
▁rief	-9.75975
▁zwar	-9.75975
▁froh	-9.75975
▁neben	-9.75975
▁überrascht	-9.75975
▁grandfather	-9.75975
▁business	-9.75975
▁aufhören	-9.75976
▁gehst	-9.75976
▁fear	-9.75976
▁eigentlich	-9.75976
▁sign	-9.75976
▁York	-9.75977
▁experience	-9.75977
▁correct	-9.75977
▁baby	-9.75977
▁blieb	-9.75977
▁2:30	-9.75978
▁größer	-9.75981
▁Today	-9.75983
▁everyone	-9.75989
▁Stop	-9.75991
▁verletzt	-9.75991
▁four	-9.75993
▁weather	-9.75993
▁asleep	-9.75993
ween	-9.75995
▁squirrel	-9.75996
▁case	-9.75998
▁everybody	-9.75998
▁city	-9.76003
▁fühlt	-9.76004
▁surprised	-9.76013
stand	-9.76022
▁zeigen	-9.76032
▁secret	-9.76043
▁interesting	-9.76055
▁town	-9.7606
▁Möchte	-9.76064
▁zwischen	-9.76064
▁wahrscheinlich	-9.76066
▁Hotel	-9.76067
▁Le	-9.76156
ast	-9.762
▁Mag	-9.76202
aught	-9.76203
▁zufrieden	-9.76217
▁meisten	-9.76232
▁Tiere	-9.76276
all	-9.76285
▁closed	-9.76337
▁Klasse	-9.76392
▁weh	-9.76505
▁jeder	-9.76533
▁changed	-9.76538
▁Fisch	-9.76548
▁beach	-9.76616
end	-9.76718
▁glaubten	-9.76778
fl	-9.76797
▁ständig	-9.76841
▁Jede	-9.76903
▁For	-9.76907
▁stellen	-9.76933
▁Kenn	-9.76973
ness	-9.7699
▁heißt	-9.77137
▁Pu	-9.77217
anz	-9.77349
▁fragen	-9.77791
▁lieben	-9.77811
▁bringen	-9.77905
kt	-9.78205
▁broken	-9.78389
ress	-9.78397
▁Frauen	-9.78465
W	-9.78502
▁Fahr	-9.7866
▁Haar	-9.79088
▁sc	-9.79263
▁Nu	-9.79358
▁bet	-9.79422
▁Su	-9.79884
▁z	-9.7992
to	-9.7998
▁isst	-9.80027
▁Re	-9.80626
▁Stelle	-9.80795
ling	-9.80911
▁neu	-9.80941
mann	-9.80956
▁simple	-9.81524
x	-9.81851
▁wach	-9.81957
aus	-9.82022
▁hab	-9.82537
▁ate	-9.82642
▁auszu	-9.82758
▁Foto	-9.82994
▁fall	-9.83057
▁mistake	-9.83214
▁wan	-9.83254
▁bitten	-9.83436
▁pa	-9.83454
▁freue	-9.83794
▁spoke	-9.8388
▁America	-9.83923
fel	-9.83968
and	-9.83986
hl	-9.84006
lassen	-9.84144
▁Brot	-9.84165
▁sage	-9.84204
▁acht	-9.84311
▁gift	-9.84456
▁verlor	-9.84484
▁strong	-9.84657
▁Am	-9.84661
schaft	-9.84703
▁mad	-9.84706
▁sell	-9.84797
▁cook	-9.84825
▁stimmt	-9.84828
▁cry	-9.84843
▁Zeitung	-9.84844
▁careful	-9.84914
▁talent	-9.84945
▁Erfolg	-9.84954
haft	-9.84998
zog	-9.85049
ßig	-9.85049
▁Computer	-9.85065
▁guitar	-9.85065
▁Entscheidung	-9.85065
▁Großvater	-9.85065
▁Nähe	-9.85065
▁Urlaub	-9.85065
▁afternoon	-9.85065
▁expensive	-9.85065
▁gefragt	-9.85065
▁geholfen	-9.85065
▁heavy	-9.85065
▁hospital	-9.85065
▁kostet	-9.85065
▁message	-9.85066
▁Tennis	-9.85066
▁foot	-9.85066
▁sechs	-9.85067
▁Besuch	-9.85067
▁climb	-9.85067
▁Kim	-9.85067
▁floor	-9.85068
▁herself	-9.85068
▁Staaten	-9.85069
▁address	-9.85069
▁pretend	-9.8507
▁blue	-9.8507
▁college	-9.8507
▁Wetter	-9.85074
▁tennis	-9.85077
▁tonight	-9.85082
▁women	-9.85082
▁grass	-9.85088
▁dorthin	-9.85096
▁Look	-9.85106
▁hotel	-9.85111
▁But	-9.85112
▁garden	-9.85112
▁camera	-9.85113
▁sent	-9.85114
▁verlassen	-9.85121
▁erklären	-9.85128
▁supposed	-9.85135
▁hoch	-9.85135
▁fährt	-9.85144
▁fürchte	-9.85146
▁endlich	-9.85149
▁Recht	-9.85155
▁Universität	-9.85163
▁freundlich	-9.85163
▁kommst	-9.85176
▁interested	-9.85196
▁Roman	-9.85202
▁verlieren	-9.85212
▁verbringen	-9.85214
▁laughing	-9.8523
▁brach	-9.85254
estern	-9.85323
▁solve	-9.85329
▁painted	-9.85343
▁patient	-9.85369
▁mögen	-9.85395
▁Studenten	-9.85445
▁power	-9.85507
▁schlecht	-9.85538
▁klar	-9.85561
hap	-9.85564
▁versuchen	-9.85616
ul	-9.85729
▁laufen	-9.85903
rate	-9.85933
ried	-9.85975
▁send	-9.86033
▁niemanden	-9.86089
▁singen	-9.86101
▁jemanden	-9.86383
▁schneller	-9.86563
▁Gras	-9.8672
▁guys	-9.86811
ad	-9.86819
▁others	-9.86885
▁Nichts	-9.86948
▁stellte	-9.87195
▁See	-9.87206
▁v	-9.87217
hi	-9.87316
▁stehen	-9.87514
nehmen	-9.87539
reich	-9.87605
▁Woh	-9.87741
▁beiden	-9.8815
▁sentences	-9.88304
ier	-9.88331
mit	-9.88381
▁worked	-9.8839
cken	-9.88412
igen	-9.88428
▁Sprachen	-9.88565
▁Ohn	-9.88825
▁arbeitet	-9.89013
▁pl	-9.89074
fer	-9.89465
▁Ho	-9.89781
▁takes	-9.89782
▁di	-9.9012
▁verg	-9.90241
▁bur	-9.90274
▁star	-9.90305
over	-9.90453
hängt	-9.90459
▁problems	-9.90585
halten	-9.90596
▁besten	-9.90697
▁liebt	-9.90724
verybody	-9.90727
▁Versuch	-9.9074
▁Fe	-9.91235
▁bear	-9.91387
▁Oh	-9.91554
▁ba	-9.9165
angen	-9.92178
▁sp	-9.92371
ave	-9.92379
▁kurz	-9.92503
▁Könn	-9.9257
che	-9.92618
wer	-9.92782
ziehen	-9.92861
▁ac	-9.92893
▁Thank	-9.93136
ischen	-9.93137
▁guy	-9.93172
5	-9.93232
ard	-9.93489
▁erzählte	-9.93758
ko	-9.93818
▁nehme	-9.94034
▁wollten	-9.94067
▁though	-9.94173
▁Teil	-9.94404
▁heiß	-9.94466
▁count	-9.94479
▁accept	-9.94483
▁rote	-9.94484
▁Kleid	-9.94503
▁irgendwo	-9.9468
▁le	-9.94728
▁vier	-9.94919
▁Feier	-9.94924
arbeit	-9.94963
▁Arzt	-9.94965
▁Ja	-9.95033
gefähr	-9.95063
▁Anzug	-9.95065
▁Brüder	-9.95065
▁England	-9.95065
▁Erfahrung	-9.95065
▁Groß	-9.95065
▁Krieg	-9.95065
▁Präsident	-9.95065
▁complain	-9.95065
▁gewonnen	-9.95065
▁heiraten	-9.95065
▁husband	-9.95065
▁mountain	-9.95065
▁natürlich	-9.95065
▁regnen	-9.95065
▁somewhere	-9.95065
▁telephone	-9.95065
▁Esperanto	-9.95065
▁remain	-9.95065
▁Wahl	-9.95066
▁gehören	-9.95066
▁Platz	-9.95066
▁building	-9.95066
▁deep	-9.95066
▁Aufgabe	-9.95066
▁traffic	-9.95066
▁Hunger	-9.95066
▁Geschenk	-9.95066
▁Krankenhaus	-9.95067
▁Kyoto	-9.95067
▁täte	-9.95067
▁studieren	-9.95067
satz	-9.95068
▁beginning	-9.95068
▁setzte	-9.95068
▁flowers	-9.95068
▁earn	-9.95069
▁lead	-9.95069
gezogen	-9.9507
▁short	-9.95071
▁Papier	-9.95071
▁dictionary	-9.95072
▁born	-9.95072
▁newspaper	-9.95072
▁least	-9.95073
▁bored	-9.95073
▁voice	-9.95074
▁bezahlt	-9.95076
▁spring	-9.95076
▁stick	-9.95076
▁swimming	-9.95076
▁computer	-9.95085
▁Traum	-9.95093
▁japanische	-9.95096
▁echt	-9.95097
▁Bill	-9.95117
▁attack	-9.95153
▁Apfel	-9.95154
▁Strand	-9.95179
▁piece	-9.95179
▁coat	-9.95208
▁tust	-9.95226
▁angekommen	-9.95227
▁Ruhe	-9.9523
chte	-9.9523
▁fair	-9.95234
▁erfahren	-9.95246
▁tief	-9.95263
▁sle	-9.95292
▁erreichen	-9.95295
▁Now	-9.95334
▁Tee	-9.95351
▁geschafft	-9.95361
▁Ehe	-9.95367
▁kids	-9.95374
▁Kra	-9.95406
▁Chinese	-9.95436
▁Dein	-9.95494
▁studying	-9.95499
▁moved	-9.9557
▁guess	-9.95578
▁rot	-9.95661
▁brachte	-9.95798
▁passed	-9.95933
▁Not	-9.96109
▁Wand	-9.96115
▁artist	-9.96195
▁later	-9.96226
▁rest	-9.9627
da	-9.96664
▁mu	-9.96726
▁Ken	-9.96821
▁Bein	-9.96824
▁fallen	-9.96841
▁Japaner	-9.97031
mark	-9.97031
▁rate	-9.97267
schlag	-9.97277
".	-9.97322
▁plane	-9.9747
▁l	-9.97473
▁Gra	-9.97566
▁Worte	-9.97567
▁inter	-9.97576
▁alleine	-9.97801
▁speaking	-9.97835
▁happens	-9.97843
ga	-9.97991
geben	-9.98012
▁touch	-9.98143
▁Mo	-9.98565
▁ring	-9.98789
sh	-9.98958
ka	-9.99087
▁Manch	-9.99243
▁besucht	-9.99327
▁Every	-9.99381
▁bu	-9.99506
pp	-9.9957
▁lass	-9.99576
▁liebte	-9.99605
nde	-9.99658
ehr	-9.99661
ku	-9.99951
▁eaten	-10.002
pt	-10.01
zen	-10.0108
▁girls	-10.0143
elf	-10.019
▁könnten	-10.0202
▁boys	-10.0208
ating	-10.0228
▁works	-10.0228
▁begin	-10.0261
▁Bo	-10.0294
ward	-10.0339
ute	-10.0343
▁dogs	-10.0361
einander	-10.0363
sehen	-10.0386
▁erinnert	-10.0398
▁bill	-10.0408
▁hierher	-10.0413
ner	-10.0424
▁Nicht	-10.0427
▁ignor	-10.0429
T	-10.0443
▁minute	-10.0444
▁fact	-10.0448
bald	-10.0449
▁Küche	-10.0494
▁Karte	-10.0503
▁Auge	-10.0505
▁gebe	-10.0537
▁feeling	-10.0542
gleichen	-10.0546
iz	-10.0561
▁photo	-10.0567
▁Vo	-10.057
▁return	-10.0575
▁strange	-10.0579
ba	-10.0589
▁Deine	-10.0597
▁Kin	-10.0604
pfel	-10.0611
▁dran	-10.0613
▁shop	-10.0617
▁fool	-10.0617
▁Tränen	-10.0618
▁consider	-10.0618
▁prepar	-10.0618
giving	-10.0618
▁Anfang	-10.0618
▁Baseball	-10.0618
▁Christmas	-10.0618
▁Luft	-10.0618
▁Patient	-10.0618
▁Prozent	-10.0618
▁apologize	-10.0618
▁berühmt	-10.0618
▁egal	-10.0618
▁excellent	-10.0618
▁funktioniert	-10.0618
▁gegenüber	-10.0618
▁geschehen	-10.0618
▁getötet	-10.0618
▁girlfriend	-10.0618
▁innocen	-10.0618
▁jealous	-10.0618
▁library	-10.0618
▁medicine	-10.0618
▁remind	-10.0618
▁several	-10.0618
▁smoke	-10.0618
▁themselves	-10.0618
▁verkaufen	-10.0618
▁wüsste	-10.0618
▁ändern	-10.0618
▁Ahnung	-10.0618
▁Europe	-10.0618
▁Winter	-10.0618
▁foreign	-10.0618
▁milk	-10.0618
▁scared	-10.0618
▁belong	-10.0618
▁vacation	-10.0618
▁clean	-10.0618
▁eingeladen	-10.0618
▁langweilig	-10.0618
▁silent	-10.0618
▁bedeutet	-10.0618
▁absolutely	-10.0618
▁Milch	-10.0618
▁Spanish	-10.0618
▁blood	-10.0618
▁Fußball	-10.0618
▁president	-10.0618
▁Mittagessen	-10.0618
▁fruit	-10.0618
▁bezahlen	-10.0618
▁stood	-10.0618
▁Wohnung	-10.0618
▁Hätte	-10.0618
▁Sprich	-10.0618
▁gewartet	-10.0618
▁Bank	-10.0618
▁leisten	-10.0618
▁OK	-10.0618
▁bread	-10.0618
▁loud	-10.0618
▁Unternehmen	-10.0618
▁earth	-10.0619
▁gewisse	-10.0619
▁großartig	-10.0619
▁With	-10.0619
▁verließ	-10.0619
▁mochte	-10.0619
rüber	-10.0619
▁exam	-10.062
▁Eindruck	-10.062
▁Ausland	-10.062
▁worried	-10.062
▁niemandem	-10.0621
▁Mund	-10.0621
▁vollkommen	-10.0622
▁moon	-10.0622
gesetzt	-10.0622
▁Mike	-10.0622
▁winter	-10.0622
▁Sätze	-10.0622
▁white	-10.0623
▁Farbe	-10.0623
▁nobody	-10.0623
▁slowly	-10.0625
▁arrested	-10.0625
▁kümmern	-10.0626
▁halb	-10.0627
▁niemals	-10.0628
▁heraus	-10.0628
▁received	-10.0629
▁famous	-10.063
▁verheiratet	-10.063
▁figure	-10.063
▁sagst	-10.0631
▁blau	-10.0633
▁Amerika	-10.0633
▁gewinnen	-10.0636
▁law	-10.0636
▁Rechnung	-10.0639
▁Blumen	-10.0639
▁erzählen	-10.0641
▁intend	-10.0649
outh	-10.0649
▁writing	-10.0651
▁restaurant	-10.0651
▁fight	-10.0653
▁tue	-10.0657
▁sterben	-10.0657
▁inside	-10.0663
▁Gitarre	-10.0664
▁post	-10.0665
▁böse	-10.0667
▁fuhr	-10.0673
▁genommen	-10.0673
haus	-10.0675
ze	-10.0678
room	-10.068
▁Ch	-10.068
schlagen	-10.0686
▁appear	-10.0687
▁desk	-10.0691
▁listening	-10.0695
▁fill	-10.0706
▁schlechter	-10.0713
▁evening	-10.072
▁Hut	-10.0725
▁Lied	-10.0732
▁sometime	-10.0734
▁shower	-10.074
ise	-10.0741
▁burn	-10.0749
▁Herz	-10.0755
▁meat	-10.0755
▁cards	-10.0766
!"	-10.078
▁Eis	-10.0784
▁apples	-10.0794
▁Geb	-10.0799
▁Halt	-10.08
aten	-10.0818
eiß	-10.0849
age	-10.0859
nis	-10.0873
▁Berg	-10.0891
▁bar	-10.0903
▁Hunde	-10.0916
▁telling	-10.0932
▁low	-10.0995
▁times	-10.1016
▁needed	-10.1033
▁hasse	-10.106
▁oben	-10.1075
legte	-10.1107
▁wussten	-10.1125
▁ma	-10.1126
asse	-10.1157
the	-10.1166
rau	-10.1179
▁nächstes	-10.119
▁jene	-10.1192
▁fr	-10.1221
▁Ra	-10.1224
▁means	-10.1252
▁likely	-10.1262
▁wartete	-10.1283
▁Freunden	-10.1312
▁irgendeine	-10.1318
ian	-10.1319
go	-10.1321
▁junge	-10.1324
nte	-10.1345
▁top	-10.135
▁Ka	-10.1359
▁brothers	-10.1361
qu	-10.1379
▁halte	-10.1385
▁ideas	-10.141
▁schau	-10.1462
▁anderes	-10.1488
▁emp	-10.1514
lar	-10.1537
me	-10.1551
▁cause	-10.1552
tro	-10.1564
▁crowd	-10.1577
isa	-10.1609
setzen	-10.1612
▁rein	-10.1625
ork	-10.1629
▁decide	-10.1644
▁result	-10.1661
▁second	-10.1661
▁deserve	-10.1662
▁bird	-10.1667
▁aufzu	-10.1676
halb	-10.1684
kommt	-10.1688
für	-10.1689
▁spiele	-10.1693
M	-10.1694
▁Probleme	-10.17
▁könnt	-10.1705
▁grow	-10.1713
▁apple	-10.1714
haben	-10.172
▁hört	-10.1744
zugehen	-10.1754
▁höre	-10.1756
▁wolle	-10.1757
▁zuvor	-10.1768
▁schließ	-10.1802
▁lernt	-10.1803
▁Schlaf	-10.1804
achte	-10.1814
▁Beste	-10.1814
▁rid	-10.1815
▁Vi	-10.1824
arth	-10.1826
▁report	-10.1827
▁finish	-10.1829
hol	-10.1836
tel	-10.184
▁worry	-10.1843
▁spreche	-10.1843
▁art	-10.1845
führt	-10.1847
▁erwartet	-10.1852
▁success	-10.1854
▁Sta	-10.1856
▁lock	-10.1859
▁o	-10.1859
ieb	-10.1863
▁Amerikaner	-10.1864
▁object	-10.1865
eople	-10.1866
▁Geschäft	-10.1867
ffne	-10.1867
▁disappoint	-10.1868
▁Flughafen	-10.1868
▁Freude	-10.1868
▁Himmel	-10.1868
▁Kamera	-10.1868
▁London	-10.1868
▁Nimm	-10.1868
▁October	-10.1868
▁Oktober	-10.1868
▁Projekt	-10.1868
▁Telefonnummer	-10.1868
▁Vergangenheit	-10.1868
▁Vögel	-10.1868
▁beigebracht	-10.1868
▁choice	-10.1868
▁escape	-10.1868
▁future	-10.1868
▁gearbeitet	-10.1868
▁geliebt	-10.1868
▁natural	-10.1868
▁ruhig	-10.1868
▁satisfied	-10.1868
▁smoking	-10.1868
▁space	-10.1868
▁stolz	-10.1868
▁thousand	-10.1868
▁unschuldig	-10.1868
▁village	-10.1868
▁wütend	-10.1868
▁drug	-10.1868
▁jump	-10.1868
▁project	-10.1868
▁record	-10.1868
▁zeigt	-10.1868
▁Sofa	-10.1868
▁kaufte	-10.1868
▁rose	-10.1868
▁Typ	-10.1868
▁dringend	-10.1868
▁anfangen	-10.1868
▁Künstler	-10.1868
▁manchmal	-10.1868
▁erwischt	-10.1868
▁realize	-10.1868
▁Frankreich	-10.1868
▁Möglichkeit	-10.1868
▁alive	-10.1868
▁group	-10.1868
▁unbed	-10.1868
▁studiert	-10.1868
▁yellow	-10.1868
▁rechtzeitig	-10.1868
▁Nachmittag	-10.1868
▁zuhause	-10.1868
▁Paul	-10.1868
▁Klein	-10.1868
▁chair	-10.1868
▁Zweifel	-10.1868
▁diary	-10.1868
▁hold	-10.1868
▁material	-10.1868
▁Monday	-10.1868
▁öffnen	-10.1868
▁Wörterbuch	-10.1868
▁Fleisch	-10.1868
▁airport	-10.1868
▁tanzen	-10.1869
▁Chance	-10.1869
▁weinen	-10.1869
bild	-10.1869
▁Dorf	-10.1869
▁treat	-10.1869
▁mood	-10.1869
▁Tagebuch	-10.1869
▁Mahl	-10.1869
▁weak	-10.1869
▁cup	-10.1869
▁Moment	-10.1869
▁lautet	-10.1869
▁lack	-10.187
▁Adresse	-10.187
▁15	-10.187
▁chess	-10.187
▁ausgezeichnet	-10.1871
▁US	-10.1871
▁anybody	-10.1871
▁hinaus	-10.1871
▁Mantel	-10.1871
▁Kerl	-10.1872
▁reparieren	-10.1872
▁hit	-10.1872
▁vorstellen	-10.1873
▁map	-10.1874
▁fifty	-10.1874
▁allowed	-10.1874
▁perce	-10.1875
▁Früh	-10.1875
▁Messer	-10.1875
▁feed	-10.1876
▁reach	-10.1877
hör	-10.1877
▁besorgt	-10.1878
▁shall	-10.1878
▁anrufen	-10.1878
▁cream	-10.1879
▁saved	-10.1879
▁glasses	-10.1882
▁Gebäude	-10.1882
▁Unterricht	-10.1882
▁bleibt	-10.1882
▁difference	-10.1882
▁respect	-10.1882
▁crossed	-10.1886
▁vorsichtig	-10.1886
▁lying	-10.1887
gegangen	-10.1888
▁White	-10.1889
▁noticed	-10.1889
third	-10.1891
▁carefully	-10.1891
▁Denk	-10.1894
▁worrying	-10.1895
▁miteinander	-10.1895
▁Tod	-10.1896
▁feet	-10.1897
▁versteht	-10.1897
mail	-10.1897
▁Betty	-10.1903
treten	-10.1904
▁unten	-10.1906
mutter	-10.1907
▁Wat	-10.1908
▁rare	-10.1909
▁schlug	-10.1909
▁Spanisch	-10.191
▁clear	-10.1912
eck	-10.1913
grund	-10.1913
▁expecting	-10.1913
▁ernst	-10.1914
▁fit	-10.1916
▁Schreiben	-10.1922
▁Yen	-10.1922
▁Gedanken	-10.1924
▁Rauch	-10.1925
▁France	-10.1927
▁zwanzig	-10.193
▁bake	-10.1931
till	-10.1932
▁trug	-10.1936
▁awake	-10.1938
▁Tode	-10.1939
▁lief	-10.1939
▁liest	-10.1941
▁fol	-10.1944
▁mehrere	-10.1946
▁waited	-10.1949
▁missed	-10.195
▁sleeping	-10.1952
▁singer	-10.1954
▁schloss	-10.1956
▁film	-10.196
hob	-10.1963
▁seat	-10.1965
▁De	-10.1971
▁woke	-10.1973
▁anzu	-10.199
▁paint	-10.1994
▁fällt	-10.2006
ship	-10.2009
wort	-10.2011
▁abge	-10.2013
▁leiden	-10.2014
▁vote	-10.2017
king	-10.2033
▁scheinen	-10.2036
▁spoken	-10.2036
▁Kein	-10.2043
▁kleiner	-10.2044
▁test	-10.2048
gelaufen	-10.2055
▁setzen	-10.2059
▁Den	-10.2068
▁King	-10.2074
our	-10.2084
ag	-10.2085
▁Sachen	-10.2088
▁force	-10.2093
▁Thanks	-10.2117
keit	-10.2122
teilt	-10.2144
igkeit	-10.2149
▁rec	-10.2167
▁solltet	-10.2189
▁Per	-10.2195
▁ea	-10.2209
▁Ke	-10.2247
▁trees	-10.2278
▁cri	-10.2284
zeug	-10.2366
▁Ne	-10.2377
tag	-10.2393
▁Pferd	-10.2397
▁total	-10.2446
unter	-10.2481
▁Stell	-10.2499
fahren	-10.2505
▁verb	-10.2508
read	-10.2549
▁gra	-10.2589
▁Stimm	-10.2606
▁warte	-10.2619
om	-10.2628
port	-10.2632
▁Op	-10.2656
llen	-10.2656
▁100	-10.2662
ky	-10.2694
▁imagine	-10.2696
▁Kindern	-10.2724
red	-10.2729
▁pre	-10.274
ama	-10.2747
liche	-10.2756
▁Ei	-10.2775
use	-10.2778
▁owe	-10.2794
ious	-10.2795
▁sta	-10.2807
ded	-10.282
etzt	-10.2821
▁Al	-10.2831
▁hug	-10.2848
elt	-10.2877
gt	-10.2881
▁Such	-10.2893
▁lebte	-10.2898
ary	-10.2919
▁hate	-10.2934
▁gas	-10.2936
scheinen	-10.2936
▁keiner	-10.2949
▁Sha	-10.2997
ong	-10.3017
▁müsst	-10.3019
▁lag	-10.304
▁Ro	-10.3041
▁fle	-10.3047
▁aller	-10.3055
D	-10.3059
▁Dieb	-10.3059
▁Mari	-10.3088
gemein	-10.3098
ange	-10.3106
clock	-10.3107
Nein	-10.311
▁Keine	-10.3111
count	-10.3112
2	-10.3113
bleiben	-10.312
either	-10.3121
licher	-10.3121
plan	-10.3123
how	-10.3126
▁digital	-10.3131
▁ste	-10.3166
▁cost	-10.3179
spielen	-10.3182
▁glaubt	-10.3182
▁ho	-10.3183
reise	-10.3184
vo	-10.3193
▁laugh	-10.3229
▁Fall	-10.323
▁Student	-10.3231
spiel	-10.3235
▁verärgert	-10.3238
▁lo	-10.3251
▁schwierig	-10.3255
▁suggest	-10.3256
▁Y	-10.326
ände	-10.3261
▁draw	-10.3267
▁Sal	-10.3274
tun	-10.3278
▁serious	-10.3279
▁arrive	-10.3279
▁Schuld	-10.3284
▁Geheimnis	-10.3291
▁irgend	-10.3291
▁schuld	-10.3293
▁Zi	-10.3293
▁deli	-10.3294
▁major	-10.3295
▁prison	-10.3296
▁danger	-10.3296
ngebot	-10.3296
▁Zwei	-10.3296
alität	-10.3296
▁Verkehr	-10.3296
▁Erklär	-10.3296
▁Bibliothek	-10.3296
▁Brazil	-10.3296
▁Gefahr	-10.3296
▁Gefängnis	-10.3296
▁Polizist	-10.3296
▁Tokyo	-10.3296
▁Verantwortung	-10.3296
▁Yesterday	-10.3296
▁angefangen	-10.3296
▁arbeitslos	-10.3296
▁continue	-10.3296
▁couple	-10.3296
▁geküsst	-10.3296
▁holiday	-10.3296
▁hundred	-10.3296
▁introduce	-10.3296
▁lustig	-10.3296
▁responsible	-10.3296
▁speech	-10.3296
▁twice	-10.3296
▁umbrella	-10.3296
▁versprochen	-10.3296
▁Europa	-10.3296
▁Should	-10.3296
▁easily	-10.3296
▁equal	-10.3296
▁erfolgreich	-10.3296
▁häufig	-10.3296
▁küssen	-10.3296
▁regard	-10.3296
▁Haupt	-10.3296
▁Kunst	-10.3296
▁geschlossen	-10.3296
▁nennen	-10.3296
▁selber	-10.3296
▁Frieden	-10.3296
▁honest	-10.3296
▁Absicht	-10.3296
▁besonders	-10.3296
▁Volk	-10.3296
▁gespielt	-10.3296
▁Montag	-10.3296
▁ashamed	-10.3296
▁bank	-10.3296
▁spazieren	-10.3296
▁euer	-10.3296
▁available	-10.3296
▁verschiedene	-10.3296
▁smart	-10.3296
▁Stift	-10.3296
▁bewusst	-10.3296
▁black	-10.3296
▁protect	-10.3296
▁dark	-10.3297
▁Schreibtisch	-10.3297
▁university	-10.3297
▁abroad	-10.3297
▁hill	-10.3297
▁Wochenende	-10.3297
▁Onkel	-10.3297
▁Zukunft	-10.3297
▁hurry	-10.3297
▁Spreche	-10.3297
▁miles	-10.3297
▁failed	-10.3297
wagen	-10.3297
▁crime	-10.3297
▁break	-10.3297
▁Laune	-10.3297
▁Blut	-10.3297
▁socks	-10.3297
▁running	-10.3297
▁tears	-10.3297
▁unmöglich	-10.3297
▁marry	-10.3297
▁Kiste	-10.3298
:30	-10.3298
▁wallet	-10.3298
▁radio	-10.3298
▁entlang	-10.3298
▁trotz	-10.3298
▁raise	-10.3298
▁thick	-10.3298
▁Lesen	-10.3299
▁fuck	-10.3299
▁passieren	-10.3299
flogen	-10.3299
▁genauso	-10.3299
▁Planet	-10.33
▁anyway	-10.33
▁Taxi	-10.33
▁weekend	-10.33
▁uncle	-10.33
▁self	-10.33
▁pocket	-10.33
▁Schach	-10.3301
▁jemandem	-10.3302
▁sight	-10.3303
▁Tasse	-10.3303
▁lesson	-10.3303
▁fühle	-10.3304
▁drank	-10.3304
▁Fernseher	-10.3305
▁Alter	-10.3306
print	-10.3306
▁Nase	-10.3307
▁Lächeln	-10.3307
▁dürfen	-10.3307
▁Russ	-10.3307
▁sky	-10.3308
tion	-10.3309
▁cheaper	-10.331
occer	-10.3312
▁Call	-10.3313
▁fine	-10.3313
ative	-10.3313
▁Lehrerin	-10.3314
▁hübsche	-10.3315
▁scream	-10.332
▁besitzt	-10.3322
▁Last	-10.3323
▁Weil	-10.3324
▁Bleib	-10.3326
▁relative	-10.3327
lin	-10.3328
mmed	-10.3328
▁Pri	-10.3328
▁dirty	-10.3329
▁yen	-10.3329
▁shut	-10.3329
▁fault	-10.3331
▁noise	-10.3332
▁ahead	-10.3334
▁hält	-10.3336
▁crying	-10.334
▁denkt	-10.334
▁shirt	-10.334
▁add	-10.3342
▁benutzen	-10.3343
▁Eier	-10.3344
▁Rede	-10.3347
▁apartment	-10.3349
▁accord	-10.3349
ächt	-10.335
▁Listen	-10.335
▁Gefühle	-10.3351
▁pain	-10.3351
▁trinkt	-10.3353
rub	-10.3355
▁schrieb	-10.3355
▁translate	-10.3356
▁leer	-10.3357
▁field	-10.3358
▁kümmert	-10.3367
▁geschickt	-10.337
▁lernte	-10.3371
▁eggs	-10.3373
▁Herzen	-10.3379
▁Schreib	-10.3379
▁stolen	-10.338
▁Obst	-10.338
▁Here	-10.3381
▁entfernt	-10.3384
cial	-10.3387
▁Schnee	-10.3389
▁thank	-10.3394
▁Händen	-10.3395
▁wind	-10.3395
▁sieh	-10.3398
▁kennt	-10.3399
▁drinking	-10.3401
ort	-10.3402
▁hide	-10.3405
▁type	-10.3405
▁Beine	-10.3407
▁graduate	-10.3407
▁wünsche	-10.3409
zubringen	-10.3411
▁state	-10.3418
▁Könnt	-10.3426
▁läuft	-10.3428
▁ground	-10.3433
▁depends	-10.3433
▁Pan	-10.3442
▁herein	-10.3449
stig	-10.346
▁beg	-10.3464
org	-10.3472
oose	-10.3496
eilen	-10.3497
▁Tre	-10.3497
▁Nein	-10.3498
schw	-10.3501
▁rufen	-10.3508
▁planet	-10.3509
rger	-10.3511
▁Mond	-10.3513
▁Tor	-10.3519
ide	-10.3522
▁möchten	-10.3529
▁ended	-10.3546
aß	-10.3553
▁feelings	-10.3557
▁Mos	-10.3571
▁card	-10.3579
▁müsste	-10.3581
▁neun	-10.3587
▁Katzen	-10.3607
▁faster	-10.3627
▁Unit	-10.3632
▁Tat	-10.3635
get	-10.3708
▁beantwortet	-10.3717
zed	-10.3745
weder	-10.3761
ät	-10.378
gar	-10.3795
leben	-10.3796
▁tie	-10.3801
▁Seit	-10.3802
▁dreams	-10.3809
dy	-10.3817
▁warst	-10.3825
▁ju	-10.3827
ble	-10.383
▁heim	-10.3831
ß	-10.3832
▁meinst	-10.3851
▁bl	-10.3873
▁h	-10.3878
▁fl	-10.3885
▁ca	-10.3891
wei	-10.3895
wachte	-10.3907
erk	-10.3907
▁Scho	-10.3909
▁schwache	-10.393
▁plann	-10.3936
mate	-10.3937
are	-10.3941
body	-10.3951
▁Hu	-10.3971
▁Versuche	-10.3978
▁verur	-10.398
ätze	-10.4008
▁Gute	-10.4026
▁eats	-10.4027
▁Schw	-10.4038
▁ha	-10.4057
▁falsch	-10.4063
hing	-10.4075
ess	-10.4083
▁letters	-10.4099
▁thinking	-10.4107
trag	-10.4157
▁Kau	-10.4164
test	-10.4187
ub	-10.425
00	-10.4252
▁pack	-10.426
▁wären	-10.426
auer	-10.4265
▁At	-10.427
▁Stat	-10.4305
gu	-10.4321
▁teachers	-10.4331
essen	-10.435
sse	-10.442
row	-10.4483
ev	-10.4505
▁bra	-10.4515
litt	-10.453
▁50	-10.455
▁gutes	-10.4551
▁ta	-10.457
▁sh	-10.4572
▁San	-10.4576
▁meinte	-10.4593
H	-10.4597
ain	-10.461
weg	-10.4619
▁erinner	-10.4622
eis	-10.4635
▁Kar	-10.4636
▁Sp	-10.4674
▁arbeite	-10.4682
way	-10.4702
▁Gree	-10.4704
holt	-10.4718
▁30	-10.4723
▁Bl	-10.4737
gestellt	-10.4741
ton	-10.4751
▁ticket	-10.4756
zin	-10.477
fallen	-10.4774
30	-10.4775
▁typ	-10.4778
book	-10.4789
What	-10.4789
No	-10.479
buch	-10.4791
Was	-10.4792
▁lebe	-10.4796
giss	-10.4801
Wo	-10.4803
▁wollt	-10.4816
▁frag	-10.482
fällt	-10.4821
ndlich	-10.4823
run	-10.4825
▁Männer	-10.483
fach	-10.4833
▁hid	-10.4836
▁ehe	-10.4844
▁Frag	-10.4845
▁spit	-10.4847
▁hole	-10.4847
▁Minute	-10.4849
▁wär	-10.4853
▁lese	-10.4861
elle	-10.4866
wake	-10.4868
▁irgendw	-10.4871
ki	-10.4874
▁ange	-10.488
omme	-10.4884
▁schlimm	-10.4884
▁rufe	-10.4886
gelassen	-10.4897
▁Meer	-10.4898
▁Gefühl	-10.4899
▁Dank	-10.4901
utter	-10.491
▁Tier	-10.4911
▁sla	-10.4911
▁real	-10.4919
emon	-10.4924
▁peace	-10.4925
▁list	-10.4928
▁wide	-10.4931
lic	-10.4931
unterricht	-10.4936
▁mar	-10.4938
▁hübsch	-10.4942
cious	-10.4943
▁Ji	-10.4945
▁Wind	-10.4946
gelegt	-10.4947
▁notice	-10.495
9	-10.4959
lös	-10.4961
▁übrig	-10.4962
zimmer	-10.4962
rotz	-10.4962
one	-10.4963
▁Wörter	-10.4963
▁Million	-10.4963
▁million	-10.4963
▁Netz	-10.4963
▁absolut	-10.4963
▁Schokolade	-10.4963
▁private	-10.4963
süchtig	-10.4963
▁Brille	-10.4963
▁Erkältung	-10.4963
▁Füße	-10.4963
▁Galile	-10.4963
▁Gelegenheit	-10.4963
▁Gemüse	-10.4963
▁Gespräch	-10.4963
▁Hügel	-10.4963
▁Insekten	-10.4963
▁Kanada	-10.4963
▁Medikament	-10.4963
▁Mühe	-10.4963
▁Ordnung	-10.4963
▁Restaurant	-10.4963
▁September	-10.4963
▁Situation	-10.4963
▁Töchter	-10.4963
▁Unfortunately	-10.4963
▁anywhere	-10.4963
▁appreciate	-10.4963
▁aussieht	-10.4963
▁baseball	-10.4963
▁beeindruckt	-10.4963
▁bottom	-10.4963
▁conversation	-10.4963
▁driving	-10.4963
▁drunk	-10.4963
▁drüben	-10.4963
▁englische	-10.4963
▁entschuldigen	-10.4963
▁examination	-10.4963
▁favour	-10.4963
▁französische	-10.4963
▁genannt	-10.4963
▁gewaschen	-10.4963
▁grandmother	-10.4963
▁hungrig	-10.4963
▁impossible	-10.4963
▁knife	-10.4963
▁leaving	-10.4963
▁ocean	-10.4963
▁particular	-10.4963
▁recognize	-10.4963
▁regret	-10.4963
▁repair	-10.4963
▁risk	-10.4963
▁schrecklich	-10.4963
▁solution	-10.4963
▁stories	-10.4963
▁support	-10.4963
▁unhöflich	-10.4963
▁unrecht	-10.4963
▁zufällig	-10.4963
▁Osaka	-10.4963
▁advise	-10.4963
▁concert	-10.4963
▁machine	-10.4963
▁murder	-10.4963
▁refuse	-10.4963
▁thief	-10.4963
▁welcome	-10.4963
krieg	-10.4963
▁Gewalt	-10.4963
▁Jemand	-10.4963
▁Lüge	-10.4963
▁Müll	-10.4963
▁menschliche	-10.4963
▁succeed	-10.4963
▁bike	-10.4963
▁Brown	-10.4963
▁Währ	-10.4963
▁gewohnt	-10.4963
▁Konzert	-10.4963
▁angetan	-10.4963
▁bowl	-10.4963
▁information	-10.4963
▁Schloss	-10.4963
▁electricity	-10.4963
▁erledigen	-10.4963
▁Meg	-10.4963
▁okay	-10.4963
▁überzeugt	-10.4963
▁2013	-10.4963
▁memori	-10.4963
▁Sold	-10.4963
▁Nehm	-10.4963
▁novel	-10.4963
▁Firma	-10.4963
▁Getränk	-10.4963
▁erledigt	-10.4963
▁seven	-10.4963
▁wäscht	-10.4963
▁video	-10.4963
▁breath	-10.4963
▁blame	-10.4963
▁Yoko	-10.4963
▁befreundet	-10.4963
▁benutzt	-10.4963
▁handeln	-10.4963
▁measure	-10.4963
position	-10.4963
▁Teu	-10.4963
▁handsome	-10.4963
fford	-10.4963
▁monster	-10.4963
▁Schachtel	-10.4963
▁kocht	-10.4963
▁mention	-10.4963
▁trank	-10.4964
▁ugly	-10.4964
▁green	-10.4964
▁Marika	-10.4964
▁Talent	-10.4964
▁step	-10.4964
▁Insel	-10.4964
fassen	-10.4964
▁lösen	-10.4964
▁thirsty	-10.4964
▁Beispiel	-10.4964
▁Father	-10.4964
▁Steh	-10.4964
▁Mittag	-10.4964
▁beginnen	-10.4964
polite	-10.4964
▁Vogel	-10.4964
▁hart	-10.4965
▁immediately	-10.4965
▁sharp	-10.4965
▁lake	-10.4965
▁cool	-10.4965
▁charge	-10.4965
▁upset	-10.4965
▁itself	-10.4965
▁Bäume	-10.4965
▁Kraft	-10.4965
▁plötzlich	-10.4965
omas	-10.4965
▁boring	-10.4965
▁lä	-10.4965
▁beibringen	-10.4965
▁reisen	-10.4965
▁wood	-10.4965
▁Boden	-10.4966
▁fliegen	-10.4966
▁summer	-10.4966
▁eight	-10.4966
▁nerv	-10.4966
▁glaubst	-10.4966
▁sauer	-10.4966
▁remove	-10.4967
▁unterhalten	-10.4967
▁Socken	-10.4968
board	-10.4968
▁line	-10.4968
▁hieß	-10.4969
lose	-10.4969
mith	-10.497
▁aufgewachsen	-10.4971
▁suddenly	-10.4971
▁geschlagen	-10.4971
kehrt	-10.4971
▁weint	-10.4972
zustellen	-10.4972
▁derjenige	-10.4973
▁Ruf	-10.4973
▁desert	-10.4973
▁Kleidung	-10.4974
▁soft	-10.4974
▁Dann	-10.4974
▁reist	-10.4975
▁einsam	-10.4975
▁fressen	-10.4976
▁dahin	-10.4976
▁bereitet	-10.4977
▁raus	-10.4978
▁entschieden	-10.4981
tür	-10.4981
▁Hallo	-10.4982
▁Artikel	-10.4982
▁claim	-10.4982
▁fünfzig	-10.4982
▁hässlich	-10.4982
▁seriously	-10.4983
boot	-10.4984
▁Kauf	-10.4985
▁flying	-10.4985
▁carry	-10.4988
▁Wald	-10.4988
▁vorher	-10.4989
ständig	-10.499
▁schreibt	-10.4991
▁safe	-10.4992
pped	-10.4994
▁dick	-10.4996
▁buil	-10.4997
sammel	-10.4998
▁Lage	-10.4999
▁shopp	-10.4999
▁Russian	-10.5001
chiff	-10.5002
▁hältst	-10.5003
▁Hir	-10.5003
▁Rome	-10.5005
▁beobachtet	-10.5006
utzt	-10.5007
tail	-10.501
▁gep	-10.501
▁decen	-10.5011
▁suggested	-10.5011
▁planned	-10.5011
▁Tal	-10.5013
▁Dame	-10.5015
▁streiten	-10.5016
▁locked	-10.5018
▁zählen	-10.5019
▁handle	-10.5019
▁behalten	-10.5019
▁fix	-10.5022
ix	-10.5024
ca	-10.5027
▁Politiker	-10.5029
▁Reicht	-10.5032
▁loc	-10.5036
▁teaching	-10.5041
▁schaute	-10.5042
▁action	-10.5043
▁explained	-10.5048
sprache	-10.5049
▁scheiden	-10.5049
flü	-10.505
rap	-10.505
▁gefahren	-10.505
▁Türe	-10.505
▁geblieben	-10.505
▁griff	-10.505
▁system	-10.505
▁Mannes	-10.5052
▁bark	-10.5054
▁stepp	-10.5055
▁direct	-10.5056
▁Witze	-10.5057
▁dumm	-10.507
▁Sieh	-10.5072
▁Form	-10.5076
▁watched	-10.5078
▁team	-10.5078
▁lied	-10.508
▁fired	-10.5081
▁teuer	-10.5085
▁gebrochen	-10.5085
▁versteckt	-10.5086
▁officer	-10.5088
▁bringe	-10.5096
▁ankommen	-10.5097
▁standing	-10.5097
▁forever	-10.5099
▁Mark	-10.5107
▁expected	-10.5109
▁Kat	-10.5115
▁raining	-10.5116
▁Lat	-10.5117
val	-10.5118
ctor	-10.513
▁Woll	-10.5134
▁Pa	-10.5141
▁Leide	-10.5142
▁verbracht	-10.5142
▁brauchte	-10.5149
lass	-10.5156
▁Karten	-10.5156
▁island	-10.5159
▁Marie	-10.5161
▁younger	-10.5166
▁holen	-10.5174
▁clock	-10.5192
▁staying	-10.5198
▁Rot	-10.5219
▁harder	-10.5227
zuhalten	-10.5228
▁fo	-10.5278
stag	-10.528
▁aß	-10.5287
▁esse	-10.5294
▁Sonnen	-10.5297
▁Wolle	-10.5298
ily	-10.5304
sitzt	-10.5308
iko	-10.5317
▁sha	-10.5352
weit	-10.5358
▁Befo	-10.536
ttle	-10.5361
▁fehlt	-10.5363
▁ziehen	-10.5381
▁hang	-10.539
ack	-10.5391
piegel	-10.5425
▁daughters	-10.5426
▁Japanisch	-10.5434
▁king	-10.5439
▁Autos	-10.544
▁Gesch	-10.544
▁Koche	-10.5456
▁legs	-10.5462
▁movies	-10.5464
▁findet	-10.5469
▁Lös	-10.5479
,000	-10.5486
ause	-10.5496
▁500	-10.5502
▁sahen	-10.5515
▁improve	-10.5518
▁Ort	-10.5553
▁möchtest	-10.5571
owed	-10.5585
▁Straßen	-10.5616
tray	-10.5619
▁sk	-10.5653
▁Briefe	-10.566
wel	-10.5692
zumachen	-10.5698
▁ways	-10.57
schei	-10.573
ament	-10.577
rum	-10.5772
igt	-10.5784
▁hattest	-10.5791
▁sea	-10.5804
nge	-10.5821
indest	-10.5822
ations	-10.5875
wert	-10.5879
▁places	-10.5892
▁drinks	-10.5895
zunehmen	-10.5915
▁Bericht	-10.5929
▁Wait	-10.5933
eher	-10.5943
▁sa	-10.5979
▁Gut	-10.6013
ven	-10.603
▁non	-10.6036
▁rechts	-10.6052
▁pictures	-10.6053
cle	-10.6065
“.	-10.6071
▁schm	-10.6085
▁Stern	-10.6089
lange	-10.6089
▁wartet	-10.6126
unden	-10.6155
raw	-10.617
▁suchte	-10.6185
laufen	-10.622
▁pleas	-10.628
▁produc	-10.6301
▁mi	-10.6308
ass	-10.6316
▁sho	-10.6334
▁beantworte	-10.6386
gekommen	-10.6405
▁Pro	-10.6426
üb	-10.6432
pression	-10.6453
▁Or	-10.6466
▁stellt	-10.6485
▁fehl	-10.6495
lay	-10.6497
▁Wal	-10.6499
wal	-10.6516
tain	-10.6525
▁heiße	-10.6533
bung	-10.6559
▁Spen	-10.6583
ator	-10.6586
▁Zeige	-10.6611
▁las	-10.6636
▁Ru	-10.6645
▁tu	-10.6661
nahm	-10.6674
onne	-10.6676
times	-10.6678
▁schaff	-10.6681
▁Writ	-10.6686
▁suche	-10.6687
▁kenn	-10.6709
up	-10.6717
ppe	-10.6719
pack	-10.6721
die	-10.6739
gelt	-10.6744
will	-10.6751
▁Schrei	-10.6757
schaffen	-10.6764
▁gesund	-10.6766
▁depend	-10.6768
▁lerne	-10.6772
läuft	-10.6776
voll	-10.6778
R	-10.6783
gemacht	-10.6785
Where	-10.6788
gibt	-10.6789
K	-10.6789
Tom	-10.6791
kte	-10.6802
▁starke	-10.6807
▁weigh	-10.681
▁übe	-10.6811
rik	-10.6814
doch	-10.6817
gegeben	-10.6817
▁Schul	-10.682
▁studie	-10.6826
▁irr	-10.6829
▁lachte	-10.6833
etwas	-10.684
▁Sprach	-10.6842
▁cl	-10.6844
▁kannte	-10.6849
▁schreibe	-10.685
▁kaufe	-10.685
▁könne	-10.6851
gefallen	-10.6853
rin	-10.6861
▁Hände	-10.6869
tritt	-10.6885
▁trinke	-10.6885
▁Verkauf	-10.6894
▁Bra	-10.6897
▁Trink	-10.6897
ummer	-10.6897
cer	-10.6904
nächst	-10.6904
▁Lang	-10.6905
nahme	-10.6906
samml	-10.6906
▁Arm	-10.691
▁sad	-10.6918
▁avoid	-10.6921
▁whi	-10.6923
▁Rechn	-10.6926
träumt	-10.6927
▁fai	-10.6928
▁sur	-10.6932
▁sin	-10.6936
▁La	-10.6937
platz	-10.6944
▁glaubte	-10.6944
▁spi	-10.6946
▁exist	-10.6948
▁Schla	-10.6949
▁tax	-10.6949
▁stole	-10.6951
▁manage	-10.6954
▁eben	-10.6955
hundert	-10.6955
▁Pe	-10.6958
druck	-10.6959
▁kling	-10.6959
lötzlich	-10.696
▁express	-10.6961
stellung	-10.6962
▁favor	-10.6962
▁fift	-10.6962
▁color	-10.6963
freunde	-10.6963
schuh	-10.6963
▁borrow	-10.6963
▁reject	-10.6963
wölf	-10.6963
▁join	-10.6963
läne	-10.6963
▁Anfänger	-10.6963
▁Basketball	-10.6963
▁Canada	-10.6963
▁Diskussion	-10.6963
▁Fremdsprache	-10.6963
▁Gefangene	-10.6963
▁Gesellschaft	-10.6963
▁Internet	-10.6963
▁Job	-10.6963
▁Kartoffeln	-10.6963
▁Kirche	-10.6963
▁Koffer	-10.6963
▁Krankheit	-10.6963
▁Maschine	-10.6963
▁Milliard	-10.6963
▁Ozean	-10.6963
▁Professor	-10.6963
▁Radio	-10.6963
▁Schritt	-10.6963
▁Schutz	-10.6963
▁Schwimm	-10.6963
▁Spaziergang	-10.6963
▁Stuhl	-10.6963
▁Weihnachten	-10.6963
▁abgeschlossen	-10.6963
▁amerikanische	-10.6963
▁bemüh	-10.6963
▁capital	-10.6963
▁chocolate	-10.6963
▁colour	-10.6963
▁dancing	-10.6963
▁desperate	-10.6963
▁destroyed	-10.6963
▁dürft	-10.6963
▁eifersüchtig	-10.6963
▁elephant	-10.6963
▁erlaubt	-10.6963
▁excited	-10.6963
▁explanation	-10.6963
▁gebrauchen	-10.6963
▁geredet	-10.6963
▁gerettet	-10.6963
▁geschah	-10.6963
▁independen	-10.6963
▁injured	-10.6963
▁license	-10.6963
▁nutzlos	-10.6963
▁pencil	-10.6963
▁perfect	-10.6963
▁quantity	-10.6963
▁related	-10.6963
▁religion	-10.6963
▁request	-10.6963
▁responsibility	-10.6963
▁schüchtern	-10.6963
▁soldiers	-10.6963
▁straight	-10.6963
▁suitcase	-10.6963
▁television	-10.6963
▁thirteen	-10.6963
▁throat	-10.6963
▁täglich	-10.6963
▁töten	-10.6963
▁umgebracht	-10.6963
▁verantwortlich	-10.6963
▁vernünftig	-10.6963
▁violent	-10.6963
▁zerbrochen	-10.6963
▁Bananen	-10.6963
▁Drogen	-10.6963
▁Euro	-10.6963
▁Italian	-10.6963
▁Länder	-10.6963
▁Schmerz	-10.6963
▁Stück	-10.6963
▁Sunday	-10.6963
▁Zeh	-10.6963
▁dagegen	-10.6963
▁lonely	-10.6963
▁niedrige	-10.6963
▁regnet	-10.6963
▁riesige	-10.6963
▁schätzen	-10.6963
▁stroke	-10.6963
▁wedding	-10.6963
▁zoo	-10.6963
greifen	-10.6963
▁Bescheid	-10.6963
▁attention	-10.6963
▁behandelt	-10.6963
▁confess	-10.6963
▁cousin	-10.6963
▁davor	-10.6963
▁enemy	-10.6963
▁gemeinsam	-10.6963
▁headache	-10.6963
▁kidding	-10.6963
▁pounds	-10.6963
▁prevent	-10.6963
▁smell	-10.6963
▁supper	-10.6963
▁Egal	-10.6963
▁Fieber	-10.6963
▁Papa	-10.6963
▁suffer	-10.6963
▁surround	-10.6963
▁traurig	-10.6963
▁deutsche	-10.6963
cient	-10.6963
▁Gericht	-10.6963
▁Jackson	-10.6963
▁Lippen	-10.6963
▁Something	-10.6963
▁Sommer	-10.6963
▁Taro	-10.6963
▁Nachbarn	-10.6963
▁Sorry	-10.6963
▁Regenschirm	-10.6963
▁Two	-10.6963
▁flat	-10.6963
▁tongue	-10.6963
▁Strom	-10.6963
▁entire	-10.6963
▁Wunder	-10.6963
▁hervor	-10.6963
▁ewig	-10.6963
▁Meter	-10.6963
▁erwähn	-10.6963
▁sports	-10.6963
▁öffnete	-10.6963
▁Bürger	-10.6963
▁ehrlich	-10.6963
▁memory	-10.6963
▁oranges	-10.6963
▁Jugend	-10.6963
▁verpasst	-10.6963
▁Ansicht	-10.6963
▁above	-10.6963
▁tourist	-10.6963
▁history	-10.6963
▁Feind	-10.6963
geblich	-10.6963
▁geraten	-10.6963
▁situation	-10.6963
▁vorgeschlagen	-10.6963
▁crash	-10.6963
▁übersetzt	-10.6963
▁absent	-10.6963
mähl	-10.6963
▁example	-10.6963
▁persönlich	-10.6963
▁sowie	-10.6963
▁Fußboden	-10.6963
▁Holz	-10.6963
▁sweet	-10.6963
▁sofa	-10.6963
▁Wusste	-10.6963
▁Keks	-10.6963
▁public	-10.6963
▁üblich	-10.6963
▁knee	-10.6963
▁trick	-10.6963
▁speed	-10.6963
▁urgent	-10.6963
▁Erzähl	-10.6963
▁admit	-10.6964
▁Narr	-10.6964
▁geeignet	-10.6964
▁Gedicht	-10.6964
▁sprang	-10.6964
▁modern	-10.6964
▁poet	-10.6964
▁Feld	-10.6964
▁rauchen	-10.6964
▁bottle	-10.6964
▁fresh	-10.6964
▁gewusst	-10.6964
▁shelf	-10.6964
▁stone	-10.6964
▁hörst	-10.6964
▁Zucker	-10.6964
▁prisoners	-10.6964
ologi	-10.6964
▁ears	-10.6964
▁Heimweg	-10.6964
▁teure	-10.6964
▁Flug	-10.6964
▁Knie	-10.6964
▁poem	-10.6964
▁betrat	-10.6964
schluck	-10.6964
▁clever	-10.6964
▁schade	-10.6964
▁Schauspielerin	-10.6964
▁Buchladen	-10.6965
▁Chic	-10.6965
▁awful	-10.6965
▁spare	-10.6965
▁verwandt	-10.6965
▁Peter	-10.6965
ziehung	-10.6965
▁selten	-10.6965
▁Einzige	-10.6965
▁Rachel	-10.6965
▁schläf	-10.6965
▁rude	-10.6965
▁cancel	-10.6965
▁flight	-10.6965
▁unlucky	-10.6965
▁weiger	-10.6966
▁Chinesisch	-10.6966
▁Schlange	-10.6966
▁statt	-10.6966
▁cars	-10.6966
▁blow	-10.6966
▁irre	-10.6966
▁Kunden	-10.6966
▁Tatsache	-10.6966
▁involved	-10.6967
▁theater	-10.6967
▁Freundschaft	-10.6967
▁someday	-10.6967
▁geändert	-10.6967
▁schuldig	-10.6967
▁Stein	-10.6968
▁Suppe	-10.6968
rebs	-10.6968
▁entkommen	-10.6968
▁Steuer	-10.6968
▁wenigsten	-10.6969
▁Mittel	-10.6969
▁Studentin	-10.6969
▁verschw	-10.6969
▁handelt	-10.697
▁fever	-10.6971
▁nuts	-10.6971
▁tip	-10.6971
▁Rücken	-10.6971
▁trocken	-10.6971
▁gun	-10.6971
▁bug	-10.6972
▁Ent	-10.6972
▁Manage	-10.6973
▁aufzuhören	-10.6973
▁Versprechen	-10.6973
▁hingehen	-10.6973
▁Mode	-10.6973
▁Sport	-10.6973
ware	-10.6974
▁meters	-10.6974
▁Port	-10.6974
▁First	-10.6974
▁race	-10.6974
▁nine	-10.6974
▁Doktor	-10.6974
▁States	-10.6976
auber	-10.6977
▁nachdenken	-10.6977
▁annoyed	-10.6977
▁East	-10.6978
▁Kobe	-10.6978
▁rent	-10.6979
▁daher	-10.6981
▁taxi	-10.6981
▁angerufen	-10.6981
▁Hemd	-10.6981
▁Decke	-10.6981
▁shy	-10.6981
▁scientist	-10.6982
▁Verhalten	-10.6983
▁pink	-10.6984
▁fil	-10.6985
▁Fernsehen	-10.6985
abel	-10.6986
▁cancer	-10.6986
▁divorced	-10.6987
▁Zufall	-10.6987
▁vertraut	-10.6987
▁behavior	-10.6987
▁geboren	-10.6987
▁Facebook	-10.6987
▁schicken	-10.6987
▁knowledge	-10.6987
▁Kilometer	-10.6987
▁soup	-10.6987
▁search	-10.6987
▁voraus	-10.6987
▁necessary	-10.6988
▁aussehen	-10.6989
▁herunter	-10.6989
bersetz	-10.6991
sex	-10.6992
▁Schön	-10.6992
▁customer	-10.6992
seite	-10.6993
uelle	-10.6995
▁führte	-10.6997
▁Ok	-10.6997
▁vertrauen	-10.6998
ktor	-10.6998
▁manager	-10.6999
▁lügen	-10.6999
▁George	-10.7
cul	-10.7002
▁Pull	-10.7002
▁ball	-10.7002
▁Waffen	-10.7006
▁meals	-10.7006
▁Jong	-10.7006
▁Zigaretten	-10.7008
▁successful	-10.7009
tätig	-10.701
▁schreien	-10.7011
▁lachen	-10.7011
▁sort	-10.7013
rang	-10.7013
▁appl	-10.7014
▁Ohren	-10.7015
▁Erinnerung	-10.7017
▁Test	-10.7018
▁election	-10.702
▁Ball	-10.7022
zieht	-10.7023
▁healthy	-10.7025
▁Armen	-10.7026
▁cooking	-10.7028
▁block	-10.703
▁dauern	-10.7032
▁erwarten	-10.7033
▁unterscheiden	-10.7034
▁compare	-10.7037
▁agreed	-10.7041
▁verhaftet	-10.7044
▁Anne	-10.7048
▁fly	-10.7051
ledig	-10.7052
▁Gesetz	-10.7053
▁frisch	-10.7056
rupt	-10.7057
▁hinein	-10.7058
▁Regeln	-10.706
karten	-10.706
▁Rest	-10.7061
▁com	-10.7065
tes	-10.7065
▁popula	-10.7071
▁Beweis	-10.7071
▁stairs	-10.7072
latt	-10.7073
▁Besch	-10.7076
sper	-10.7076
▁washed	-10.708
▁gelang	-10.7081
▁hilft	-10.7081
▁chat	-10.7084
▁flow	-10.7085
▁Yes	-10.7086
▁lately	-10.7087
▁trusted	-10.7087
▁Male	-10.7089
boat	-10.7091
▁badly	-10.7098
lien	-10.7101
▁Fast	-10.7102
▁salt	-10.7105
▁mom	-10.7111
▁nose	-10.7114
▁shot	-10.7115
▁boyfriend	-10.7115
▁verstanden	-10.7115
▁heben	-10.7117
▁stimmte	-10.712
▁ignoriert	-10.7124
hren	-10.7126
▁bath	-10.7137
▁erwartete	-10.7147
▁Of	-10.7156
▁Jahres	-10.716
äste	-10.7161
▁Se	-10.7165
ien	-10.7171
nister	-10.7175
▁dritte	-10.7176
▁gek	-10.7177
▁sal	-10.7179
▁schw	-10.7193
light	-10.7194
▁bringst	-10.7195
▁teil	-10.7198
▁Küchen	-10.72
▁interessante	-10.7201
▁latest	-10.7207
▁toward	-10.7211
▁gelassen	-10.7213
▁dec	-10.7214
▁sang	-10.7215
▁Ford	-10.7219
hung	-10.7228
artig	-10.7239
▁Laut	-10.7247
ice	-10.7247
ending	-10.7249
oes	-10.7254
▁verändert	-10.7256
▁halbe	-10.7259
▁stimme	-10.7259
▁costs	-10.726
reffen	-10.7261
▁asking	-10.7274
tic	-10.7277
enty	-10.729
▁bare	-10.7293
▁tempt	-10.7299
▁birds	-10.7307
▁Dingen	-10.7314
side	-10.7314
▁Schließ	-10.7321
▁farm	-10.7322
lud	-10.7333
▁einander	-10.734
▁Sollte	-10.7342
▁passierte	-10.7347
toff	-10.7348
als	-10.735
▁date	-10.7353
ured	-10.7356
▁küsste	-10.7369
▁allergi	-10.7383
▁counts	-10.7399
▁stars	-10.7416
▁bas	-10.7438
▁richtige	-10.7461
mittel	-10.7468
▁Willen	-10.7471
▁Vaters	-10.7494
▁jokes	-10.7494
▁cur	-10.7506
▁ru	-10.7514
▁kurze	-10.7525
▁Ca	-10.7529
▁süße	-10.7532
ood	-10.7535
▁wirkt	-10.7535
des	-10.754
▁cute	-10.7549
rät	-10.7555
▁Los	-10.756
▁solle	-10.7563
cke	-10.7563
▁schlafend	-10.7564
ction	-10.7573
▁einge	-10.759
▁player	-10.7593
▁hörten	-10.7601
wünscht	-10.7607
▁falls	-10.7608
▁vari	-10.7616
▁dad	-10.7634
lichen	-10.7646
▁einzu	-10.7676
▁pur	-10.7677
▁Sich	-10.7684
▁hurts	-10.7686
▁games	-10.7687
ran	-10.7694
▁sucht	-10.7733
met	-10.7742
sitz	-10.7745
va	-10.7748
▁effect	-10.7775
ilt	-10.7779
spricht	-10.7817
uit	-10.7824
▁welches	-10.7833
▁windows	-10.7834
▁simpl	-10.784
lend	-10.7891
convinced	-10.7899
ches	-10.7909
▁Sterne	-10.7923
pri	-10.7935
▁Ope	-10.7975
▁brav	-10.798
chi	-10.801
terte	-10.8037
▁Ziel	-10.8044
▁Schwestern	-10.806
stunden	-10.8088
▁Wäre	-10.8096
ju	-10.812
hne	-10.8154
▁mis	-10.8164
zugeben	-10.8171
▁falsche	-10.8183
▁preci	-10.8221
scha	-10.8245
▁Go	-10.8255
nic	-10.8259
lung	-10.8302
ddle	-10.8313
▁area	-10.8317
auen	-10.832
▁exp	-10.8329
aby	-10.8339
▁j	-10.8364
abe	-10.8372
▁weeks	-10.8393
▁besuchte	-10.8396
▁exc	-10.8396
ppel	-10.8425
▁hell	-10.8438
▁Ann	-10.8472
▁Mitt	-10.8475
hy	-10.8482
▁Werde	-10.8538
▁wander	-10.854
▁program	-10.8548
ray	-10.8548
▁Fl	-10.8553
▁häng	-10.8578
gle	-10.8582
stellen	-10.8652
eich	-10.8723
mindest	-10.8747
▁angel	-10.8767
▁Filme	-10.8783
▁fat	-10.8852
of	-10.8895
omi	-10.892
hof	-10.8927
▁Mus	-10.8932
▁sisters	-10.8933
witz	-10.8938
reibung	-10.8948
weise	-10.8959
▁namen	-10.8967
▁liter	-10.8986
▁bro	-10.8993
▁luck	-10.9006
fall	-10.9007
▁ums	-10.9016
▁Mord	-10.9043
arkt	-10.9049
▁interessant	-10.9079
gte	-10.9086
▁Rate	-10.9088
stimmen	-10.9095
zeichnet	-10.9115
▁link	-10.9116
tage	-10.9132
spreche	-10.9153
kannte	-10.916
▁sag	-10.9172
▁verbrachte	-10.9189
ruf	-10.92
day	-10.9225
covered	-10.9229
▁Yo	-10.924
schloss	-10.9248
bare	-10.925
writer	-10.9255
come	-10.9259
most	-10.926
▁gradu	-10.9261
▁cha	-10.9264
nimmt	-10.9265
boyfriend	-10.9271
verstanden	-10.9271
nahe	-10.9272
▁abzu	-10.9274
liebe	-10.9274
gebrochen	-10.9274
▁Kl	-10.9275
hand	-10.9276
▁animal	-10.9276
Of	-10.9279
face	-10.9286
sein	-10.9287
B	-10.9287
krank	-10.9288
gesagt	-10.9289
L	-10.929
F	-10.929
hatte	-10.9291
▁Schne	-10.9296
teuer	-10.9298
je	-10.9308
ago	-10.9311
lehrer	-10.9312
▁komm	-10.9314
So	-10.9321
▁Witz	-10.9324
five	-10.9325
richtet	-10.9325
▁erkenne	-10.9336
itation	-10.9337
▁Rose	-10.9339
hel	-10.9339
karte	-10.934
▁halt	-10.9341
raft	-10.9342
▁Regel	-10.9343
▁Gedanke	-10.9345
▁chose	-10.9346
▁ziehe	-10.9347
▁Jung	-10.9348
▁fahre	-10.935
▁bekomme	-10.935
▁müsse	-10.9353
issen	-10.9364
ccord	-10.9367
▁größte	-10.9368
partment	-10.9368
woch	-10.9373
▁wohne	-10.9375
▁li	-10.9375
▁collect	-10.9377
ough	-10.9385
sprechen	-10.9389
sus	-10.9392
letzt	-10.9393
▁Erinner	-10.9394
▁Neptun	-10.9395
▁Vorstellung	-10.9395
▁versuche	-10.9396
twas	-10.9397
▁Ergebnis	-10.9397
▁liebst	-10.9398
▁erreich	-10.9398
He	-10.94
ittel	-10.94
▁super	-10.9401
rolle	-10.9404
▁min	-10.9405
▁interest	-10.9405
nahmen	-10.9411
▁kom	-10.9412
nkel	-10.9419
▁insult	-10.9419
▁knock	-10.9419
▁Gä	-10.9424
▁sweat	-10.9424
▁beschloss	-10.9427
ungslos	-10.9429
▁divorce	-10.9433
▁custom	-10.9434
narr	-10.9435
falls	-10.9436
führer	-10.9445
aka	-10.9446
▁final	-10.9447
▁appro	-10.9447
▁slow	-10.9448
▁trap	-10.945
▁stehe	-10.9451
▁hilf	-10.9451
▁antworte	-10.9452
ändert	-10.9453
▁Part	-10.9454
wiss	-10.9456
zeich	-10.9457
rsache	-10.9458
ate	-10.9459
▁Leb	-10.946
▁except	-10.946
ruder	-10.9461
99	-10.9462
▁yell	-10.9462
▁represent	-10.9462
orld	-10.9463
träge	-10.9463
source	-10.9463
emperatur	-10.9463
▁attempt	-10.9463
▁begegne	-10.9463
▁swallow	-10.9463
bücher	-10.9463
geschossen	-10.9463
gültig	-10.9463
iagnos	-10.9463
sgeschenk	-10.9463
züglich	-10.9463
▁Africa	-10.9463
▁Astronaut	-10.9463
▁Atmosphäre	-10.9463
▁August	-10.9463
▁Beleidigung	-10.9463
▁Besprechung	-10.9463
▁Bevor	-10.9463
▁Canadian	-10.9463
▁Cookie	-10.9463
▁Entschuldigung	-10.9463
▁Erscheinung	-10.9463
▁Experiment	-10.9463
▁Freitag	-10.9463
▁Friday	-10.9463
▁Fuji	-10.9463
▁Handtasche	-10.9463
▁Hauptstadt	-10.9463
▁Hawaii	-10.9463
▁Hoffnung	-10.9463
▁Konferenz	-10.9463
▁Kopfschmerzen	-10.9463
▁Layla	-10.9463
▁Methode	-10.9463
▁Monroe	-10.9463
▁Mücken	-10.9463
▁Nebel	-10.9463
▁Nächste	-10.9463
▁Picasso	-10.9463
▁Pizza	-10.9463
▁Prinzessin	-10.9463
▁Regal	-10.9463
▁Religion	-10.9463
▁Republik	-10.9463
▁Selbstmord	-10.9463
▁Sitzung	-10.9463
▁Städte	-10.9463
▁Supermarkt	-10.9463
▁Touristen	-10.9463
▁Ungeheuer	-10.9463
▁Uniform	-10.9463
▁Unterschied	-10.9463
▁Valentin	-10.9463
▁Vergnügen	-10.9463
▁Wikipedia	-10.9463
▁Wissenschaftler	-10.9463
▁Zahl	-10.9463
▁Zoo	-10.9463
▁advantage	-10.9463
▁amount	-10.9463
▁arrogant	-10.9463
▁astronaut	-10.9463
▁aufgeregt	-10.9463
▁author	-10.9463
▁basketball	-10.9463
▁beklagt	-10.9463
▁cheese	-10.9463
▁complicated	-10.9463
▁condition	-10.9463
▁description	-10.9463
▁diamond	-10.9463
▁dreht	-10.9463
▁earlier	-10.9463
▁earthquake	-10.9463
▁effort	-10.9463
▁elevator	-10.9463
▁eleven	-10.9463
▁erwachsen	-10.9463
▁experiment	-10.9463
▁extreme	-10.9463
▁failure	-10.9463
▁fashion	-10.9463
▁fliegt	-10.9463
▁furniture	-10.9463
▁fünfzehn	-10.9463
▁gebacken	-10.9463
▁gebissen	-10.9463
▁gedenkst	-10.9463
▁gefolgt	-10.9463
▁geglaubt	-10.9463
▁gehabt	-10.9463
▁guilty	-10.9463
▁happiness	-10.9463
▁heftig	-10.9463
▁hunting	-10.9463
▁insects	-10.9463
▁instinct	-10.9463
▁intelligence	-10.9463
▁jünger	-10.9463
▁kompliziert	-10.9463
▁konzentrier	-10.9463
▁köstlich	-10.9463
▁lächelt	-10.9463
▁midnight	-10.9463
▁neighborhood	-10.9463
▁nonsense	-10.9463
▁nötig	-10.9463
▁obvious	-10.9463
▁passengers	-10.9463
▁permission	-10.9463
▁pizza	-10.9463
▁policy	-10.9463
▁positiv	-10.9463
▁pronounc	-10.9463
▁rosa	-10.9463
▁sandwich	-10.9463
▁stomach	-10.9463
▁suicide	-10.9463
▁supermarket	-10.9463
▁twelve	-10.9463
▁unconscious	-10.9463
▁verhindern	-10.9463
▁verkauft	-10.9463
▁vermisst	-10.9463
▁volunteer	-10.9463
▁weapons	-10.9463
▁wisdom	-10.9463
▁zählt	-10.9463
rgument	-10.9463
sichtig	-10.9463
▁Baumwoll	-10.9463
▁Diamant	-10.9463
▁Dichter	-10.9463
▁Dürf	-10.9463
▁Elisa	-10.9463
▁Fühl	-10.9463
▁Möbel	-10.9463
▁Regierung	-10.9463
▁Träume	-10.9463
▁Univers	-10.9463
▁accused	-10.9463
▁folgende	-10.9463
▁goodbye	-10.9463
▁guard	-10.9463
▁kaputt	-10.9463
▁temperature	-10.9463
▁traitor	-10.9463
▁whale	-10.9463
▁zufolge	-10.9463
gerührt	-10.9463
hythm	-10.9463
lässig	-10.9463
schrank	-10.9463
sufficient	-10.9463
▁Klassenzimmer	-10.9463
▁Pfirsich	-10.9463
▁Street	-10.9463
▁Verräter	-10.9463
▁admir	-10.9463
▁amüsier	-10.9463
▁betrachtete	-10.9463
▁blöd	-10.9463
▁bookstore	-10.9463
▁cheek	-10.9463
▁chicken	-10.9463
▁concern	-10.9463
▁cotton	-10.9463
▁countries	-10.9463
▁exchange	-10.9463
▁höher	-10.9463
▁joking	-10.9463
▁kidnappe	-10.9463
▁nervös	-10.9463
▁published	-10.9463
▁sushi	-10.9463
▁twin	-10.9463
▁umsonst	-10.9463
▁verwendet	-10.9463
▁Flasche	-10.9463
▁Sushi	-10.9463
▁forgive	-10.9463
▁storm	-10.9463
▁verbrannt	-10.9463
▁gelangweilt	-10.9463
▁Schade	-10.9463
▁addict	-10.9463
▁bekommst	-10.9463
▁punish	-10.9463
▁Rennen	-10.9463
▁William	-10.9463
▁market	-10.9463
▁Bleistift	-10.9463
▁Brasilien	-10.9463
▁Sänger	-10.9463
▁algebra	-10.9463
▁handbag	-10.9463
▁scharf	-10.9463
▁Gleich	-10.9463
▁identi	-10.9463
▁Gepäck	-10.9463
▁instead	-10.9463
▁tolerant	-10.9463
▁Schicksal	-10.9463
▁recently	-10.9463
▁Motor	-10.9463
▁shape	-10.9463
▁Honig	-10.9463
▁Verkehrsunfall	-10.9463
▁sank	-10.9463
dolf	-10.9463
grüßen	-10.9463
itude	-10.9463
▁anprobier	-10.9463
▁push	-10.9463
▁aufpassen	-10.9463
▁Objekt	-10.9463
▁schlau	-10.9463
▁Susan	-10.9463
▁offensichtlich	-10.9463
Natürlich	-10.9463
illionaire	-10.9463
▁Größ	-10.9463
▁develop	-10.9463
▁eventually	-10.9463
▁nowhere	-10.9463
▁Cousin	-10.9463
▁Möglich	-10.9463
▁Wider	-10.9463
▁überzeugen	-10.9463
▁lawyer	-10.9463
▁unsicher	-10.9463
▁billiger	-10.9463
▁2015	-10.9463
▁bloß	-10.9463
▁service	-10.9463
▁informed	-10.9463
▁pull	-10.9463
▁debt	-10.9463
▁stärker	-10.9463
▁government	-10.9463
▁hofft	-10.9463
▁peel	-10.9463
▁zurecht	-10.9463
▁stieg	-10.9463
▁Kampf	-10.9463
▁practice	-10.9463
▁profession	-10.9463
▁Diät	-10.9463
▁snake	-10.9463
▁Schuss	-10.9463
▁crush	-10.9463
▁lips	-10.9463
▁online	-10.9463
▁Erdbeben	-10.9463
▁club	-10.9463
▁Stiefel	-10.9463
▁taub	-10.9463
▁bereue	-10.9463
▁bekam	-10.9463
▁master	-10.9463
▁direkt	-10.9463
▁education	-10.9463
▁Prinz	-10.9463
▁Schaf	-10.9463
▁limit	-10.9463
musik	-10.9463
▁näher	-10.9464
▁rough	-10.9464
▁irgendwann	-10.9464
▁bestanden	-10.9464
lphin	-10.9464
▁funny	-10.9464
▁drinnen	-10.9464
▁unemployment	-10.9464
▁2011	-10.9464
▁Dima	-10.9464
▁fox	-10.9464
▁Immer	-10.9464
▁unterbrechen	-10.9464
▁Halloween	-10.9464
schule	-10.9464
▁depri	-10.9464
▁entschloss	-10.9464
▁Abschluss	-10.9464
▁Schönheit	-10.9464
▁Blick	-10.9464
Krankenschwester	-10.9464
▁attraction	-10.9464
▁lady	-10.9464
▁1900	-10.9464
▁Theater	-10.9464
▁translation	-10.9464
▁naked	-10.9464
▁sword	-10.9464
▁pond	-10.9465
▁Hello	-10.9465
▁Newton	-10.9465
▁Ruhestand	-10.9465
▁ankam	-10.9465
▁energy	-10.9465
▁Mathe	-10.9465
▁stress	-10.9465
schlägt	-10.9465
breast	-10.9465
▁Führ	-10.9465
▁Finger	-10.9465
▁denkst	-10.9465
▁Zeitpunkt	-10.9465
▁Jack	-10.9465
▁Turn	-10.9465
▁wicked	-10.9465
▁beginner	-10.9465
▁opportunit	-10.9465
röte	-10.9465
▁hereinkommen	-10.9465
▁Appl	-10.9465
▁Fro	-10.9465
▁princess	-10.9466
nackt	-10.9466
▁wisst	-10.9466
▁held	-10.9466
werben	-10.9466
▁fries	-10.9466
▁Lachen	-10.9466
▁actually	-10.9466
▁assume	-10.9466
blü	-10.9466
▁Make	-10.9466
▁direction	-10.9466
▁abgenommen	-10.9466
nformation	-10.9466
▁Tokio	-10.9466
▁12	-10.9466
▁cookies	-10.9467
▁hohe	-10.9467
▁Wüste	-10.9467
▁hinweg	-10.9467
▁durchgemacht	-10.9467
▁expression	-10.9467
▁Paar	-10.9467
▁fett	-10.9467
▁bedroom	-10.9467
▁vorüber	-10.9468
▁aff	-10.9468
▁Stock	-10.9468
▁billion	-10.9468
▁ruin	-10.9469
▁umbringen	-10.9469
▁aunt	-10.9469
▁band	-10.9469
▁match	-10.9469
▁Mehr	-10.9469
▁Cath	-10.9469
breit	-10.9469
ymptom	-10.9469
▁Atem	-10.9469
▁unwill	-10.9469
▁unternehmen	-10.947
▁Drei	-10.947
▁Verstand	-10.9471
▁constantly	-10.9471
▁CD	-10.9471
▁Tante	-10.9471
▁steal	-10.9471
▁discussion	-10.9471
▁Letzte	-10.9471
▁south	-10.9472
äuse	-10.9472
▁skepti	-10.9472
▁jail	-10.9473
▁dry	-10.9473
▁terrible	-10.9474
▁beruh	-10.9474
uko	-10.9474
zeichnen	-10.9474
▁wound	-10.9475
▁existiert	-10.9475
ements	-10.9475
▁arti	-10.9476
▁main	-10.9476
▁desire	-10.9476
▁Stra	-10.9476
bol	-10.9476
▁retired	-10.9476
▁betrunken	-10.9477
▁Mut	-10.9477
▁Fern	-10.9478
▁fur	-10.9478
▁verlang	-10.9478
▁worse	-10.9478
▁Liter	-10.9478
▁gehalten	-10.9479
quire	-10.9479
ategor	-10.948
▁Dunkel	-10.948
▁Häuser	-10.948
▁redest	-10.9481
▁überfahren	-10.9481
▁confused	-10.9481
▁Fach	-10.9482
▁engag	-10.9482
▁übersetzen	-10.9483
▁Sekunden	-10.9483
▁Vorsitzenden	-10.9483
beute	-10.9483
reedom	-10.9484
▁anxi	-10.9484
▁Verbrechen	-10.9484
▁bemerkte	-10.9485
▁detail	-10.9485
▁Alf	-10.9485
ält	-10.9486
▁Sara	-10.9486
▁cow	-10.9487
▁gray	-10.9487
losse	-10.9489
▁hergestellt	-10.9489
▁plants	-10.9491
▁Elefanten	-10.9492
▁aufwach	-10.9492
▁hall	-10.9492
▁ausgegangen	-10.9493
▁stelle	-10.9493
▁Dort	-10.9494
▁Si	-10.9494
▁geliehen	-10.9495
▁intelligent	-10.9495
▁sprichst	-10.9495
▁blickte	-10.9495
▁gewählt	-10.9495
▁alcoholic	-10.9495
▁Hundert	-10.9495
▁proof	-10.9496
▁courage	-10.9496
▁besprechen	-10.9496
▁Emil	-10.9497
gefühl	-10.9498
▁Münz	-10.9498
▁opera	-10.9499
▁talentiert	-10.9499
▁Rom	-10.9499
▁Ohr	-10.9501
▁clearly	-10.9501
▁sweater	-10.9502
betracht	-10.9503
▁aushalten	-10.9503
▁wohin	-10.9503
▁celebrate	-10.9504
▁nieder	-10.9504
▁traf	-10.9505
▁comfortable	-10.9506
▁Gegend	-10.9506
▁verabschiedet	-10.9506
▁voneinander	-10.9507
willig	-10.9507
meter	-10.9508
▁conde	-10.9508
wur	-10.9511
▁Laufen	-10.9511
▁danke	-10.9511
▁erklärte	-10.9512
sinn	-10.9514
▁Schildkröte	-10.9516
tries	-10.9517
urry	-10.9517
▁Brauch	-10.9517
▁avoided	-10.9517
▁zahlt	-10.9518
▁gain	-10.9519
▁wider	-10.952
▁gibst	-10.952
▁Fuch	-10.9521
▁po	-10.9521
▁pour	-10.9525
▁growing	-10.9525
▁Unglück	-10.9525
corn	-10.9527
▁thy	-10.9527
▁Sünde	-10.9527
▁geni	-10.9529
▁liebsten	-10.9529
▁Neptune	-10.9531
cast	-10.9532
üte	-10.9534
ierten	-10.9535
Bahn	-10.9535
▁Bal	-10.9538
▁Weis	-10.9539
▁sleepy	-10.954
▁Rad	-10.954
▁single	-10.9541
▁ruf	-10.9546
▁staring	-10.9547
▁Trinken	-10.9548
▁selling	-10.9549
eits	-10.9549
▁unterrichte	-10.9549
▁special	-10.955
▁impressed	-10.955
▁zuhören	-10.9551
▁Nothing	-10.9551
▁Pack	-10.9552
▁terms	-10.9554
▁intentions	-10.9554
▁reported	-10.9554
▁anziehen	-10.9554
▁Gruppen	-10.9554
▁interessieren	-10.9554
▁Lieder	-10.9558
▁fangen	-10.9559
▁erreichte	-10.9559
eak	-10.9561
▁Schwein	-10.9564
dow	-10.9567
▁Meeres	-10.9569
▁Kleider	-10.9569
▁Hoch	-10.9569
werke	-10.9571
igung	-10.9571
▁ausgehen	-10.9572
▁bestehen	-10.9573
▁returned	-10.9574
▁hinder	-10.9579
ierte	-10.9579
bbed	-10.9579
umor	-10.9579
▁Dusche	-10.9581
▁drin	-10.9582
▁Ky	-10.9583
▁charm	-10.9583
weckt	-10.9584
ashi	-10.9584
▁photographi	-10.9585
▁tragi	-10.9586
▁theory	-10.9588
▁äußerst	-10.9588
▁Weile	-10.9591
▁größten	-10.9591
▁chosen	-10.9591
▁bunte	-10.9591
olo	-10.9591
▁voran	-10.9597
igkeiten	-10.96
▁Loch	-10.9602
▁erkennen	-10.9603
andidat	-10.9604
▁schließen	-10.9606
▁dri	-10.9606
umb	-10.9606
▁schneit	-10.9606
▁gedacht	-10.9607
▁gesucht	-10.9607
▁view	-10.9607
raum	-10.9608
mned	-10.9608
▁gerufen	-10.9608
▁singing	-10.9608
▁grau	-10.9609
▁cigarettes	-10.9613
▁wise	-10.9613
▁rules	-10.9614
▁general	-10.962
▁pot	-10.9624
▁nurse	-10.9624
▁feier	-10.963
▁entdeckt	-10.9635
onnen	-10.9638
wohn	-10.9641
ermin	-10.9643
▁Fest	-10.9644
ory	-10.9647
äck	-10.9648
▁Teilen	-10.9654
challen	-10.9659
▁Ring	-10.9661
▁nahe	-10.9664
hai	-10.9668
▁führen	-10.9669
▁jar	-10.9672
▁Behalte	-10.968
▁bessere	-10.969
▁politic	-10.9693
▁weise	-10.9694
▁hielten	-10.9702
▁driver	-10.9702
stoff	-10.9709
▁discover	-10.9711
▁cli	-10.9714
gung	-10.9721
▁studies	-10.9732
▁nimmt	-10.9733
▁taken	-10.9735
▁empfinde	-10.9738
▁grown	-10.974
▁Bell	-10.9742
▁Di	-10.9747
▁walking	-10.9758
dies	-10.9762
raffi	-10.9772
▁gestellt	-10.9776
▁Gel	-10.978
▁Versteh	-10.9782
▁Auße	-10.9786
▁weight	-10.9786
▁bother	-10.9791
▁Aber	-10.9795
▁tickets	-10.9795
▁schaffen	-10.9805
▁digitale	-10.9807
ssen	-10.9816
▁heißen	-10.9817
▁linke	-10.9823
gesehen	-10.9825
dere	-10.9828
▁gemein	-10.984
statu	-10.9841
▁schwerer	-10.9842
verein	-10.9844
▁freuen	-10.9852
▁Muttersprach	-10.9857
▁Ost	-10.9866
lichkeit	-10.9868
▁goal	-10.9872
gestanden	-10.9874
riechen	-10.9875
▁enttäuscht	-10.9877
▁Tanz	-10.9888
▁Green	-10.9889
▁Bestes	-10.9913
▁Kend	-10.9918
▁results	-10.9918
▁seconds	-10.9918
▁deserves	-10.9919
abend	-10.9935
▁Fu	-10.9937
▁sollst	-10.9948
▁wärest	-10.9949
lion	-10.9955
▁owned	-10.9964
▁Autofahre	-10.9974
▁Freiheit	-10.9975
▁standen	-10.998
▁facts	-10.9981
▁bills	-10.9981
▁inner	-10.9985
▁begins	-10.9989
das	-10.999
schreiben	-10.9996
mmte	-11.0013
nail	-11.0014
aved	-11.0018
losen	-11.0034
▁Lerne	-11.0037
lagen	-11.0091
▁Warte	-11.0098
dern	-11.0101
▁Fin	-11.0103
▁Gas	-11.0105
▁pig	-11.0106
▁Fotos	-11.0107
▁offen	-11.0112
▁zer	-11.0117
▁gelbe	-11.0118
▁drop	-11.0126
öpfe	-11.0129
irn	-11.0138
▁cross	-11.0163
ians	-11.0167
▁keys	-11.0171
▁Dach	-11.0171
▁Wange	-11.0172
ended	-11.0176
▁eng	-11.0182
▁Arbeiter	-11.0195
▁advance	-11.0196
▁judge	-11.0197
bb	-11.0197
▁seltsame	-11.0206
▁wett	-11.0214
▁Ideen	-11.0216
▁Pi	-11.0218
ives	-11.0243
▁mist	-11.0246
▁Muss	-11.0254
schauen	-11.029
mid	-11.0298
lz	-11.0301
wandel	-11.0302
aben	-11.0317
Send	-11.0331
▁throw	-11.0333
▁Ged	-11.0337
haltet	-11.0345
ünkt	-11.0366
▁Klo	-11.0368
qui	-11.0388
arrow	-11.0421
▁Regens	-11.0431
gut	-11.0444
cker	-11.045
issenschaftliche	-11.047
dienst	-11.0477
▁Kate	-11.0486
hänge	-11.049
▁Wochen	-11.0493
pion	-11.0496
ulous	-11.0524
▁pin	-11.0545
lage	-11.0559
▁sagtest	-11.0575
▁speaker	-11.0618
füllen	-11.0621
▁Bi	-11.0641
▁reve	-11.0661
este	-11.0757
▁depress	-11.0761
ppt	-11.0772
frei	-11.0782
▁lit	-11.0814
traut	-11.0826
name	-11.0832
gab	-11.09
▁si	-11.0913
nni	-11.0954
erheit	-11.0959
do	-11.0964
▁Berichte	-11.0966
amen	-11.097
▁Korean	-11.0983
ori	-11.0999
zusehen	-11.101
▁prove	-11.1021
ssed	-11.1042
▁gr	-11.111
▁lande	-11.1146
▁heat	-11.1191
▁zerstört	-11.1282
▁Höre	-11.1288
▁convince	-11.1316
▁Pferde	-11.1371
▁gl	-11.1402
▁grün	-11.1406
▁personal	-11.1407
▁überquer	-11.1428
urteil	-11.1441
▁sti	-11.1479
rup	-11.1488
aking	-11.15
▁kennenlern	-11.1542
▁Tra	-11.1556
▁Pla	-11.1567
lower	-11.162
▁Richt	-11.1633
▁dün	-11.1661
▁Wieder	-11.1672
iti	-11.1695
bahn	-11.1706
fängt	-11.1712
andeln	-11.1778
sprach	-11.1792
▁Schwei	-11.1819
hö	-11.1838
▁Ric	-11.184
fol	-11.1841
check	-11.1844
mble	-11.1866
ible	-11.1904
elten	-11.1916
meister	-11.1922
hanging	-11.1927
▁Berge	-11.193
▁gelb	-11.1959
finden	-11.2001
▁Schuh	-11.2006
gelte	-11.2022
brach	-11.2023
alz	-11.2053
hm	-11.2054
▁Lern	-11.2055
▁serv	-11.2069
allergie	-11.2091
uppe	-11.2093
▁Räu	-11.2103
▁comment	-11.2103
arcel	-11.2111
ießen	-11.2146
▁adopt	-11.2156
▁fütter	-11.2162
führen	-11.2212
pass	-11.2219
▁temp	-11.2224
▁enttäusch	-11.2248
Ach	-11.2255
bellen	-11.2275
ngest	-11.2275
▁dro	-11.2308
verständ	-11.2317
▁Lau	-11.234
▁leb	-11.2397
time	-11.2425
ek	-11.2428
▁reserv	-11.2437
stelle	-11.2446
rufen	-11.2466
änger	-11.2475
▁versuch	-11.2505
bal	-11.2512
▁control	-11.2512
gehe	-11.2514
▁erwarte	-11.252
head	-11.2524
▁trink	-11.2525
ulture	-11.2533
anzen	-11.2542
itze	-11.2549
lernen	-11.2551
pfen	-11.2552
shed	-11.2562
hält	-11.2563
▁snor	-11.2564
ficial	-11.2567
▁Liv	-11.2572
genommen	-11.2573
appeared	-11.2578
▁cloud	-11.2581
q	-11.2584
▁cigarette	-11.2591
stimmt	-11.2592
▁rule	-11.2597
wett	-11.2599
gedacht	-11.2599
view	-11.26
gesucht	-11.26
O	-11.2602
▁egg	-11.2603
like	-11.2604
griff	-11.2607
system	-11.2608
geblieben	-11.2608
stole	-11.2609
wise	-11.261
geschickt	-11.2611
scheiden	-11.2611
Yes	-11.2611
hilf	-11.2611
zwanzig	-11.2612
fuhr	-11.2614
wahr	-11.2614
power	-11.2616
pai	-11.2617
clear	-11.2618
trug	-11.2618
denken	-11.2618
▁gues	-11.2618
trägt	-11.262
stairs	-11.262
coming	-11.262
kalt	-11.2621
part	-11.2622
gelesen	-11.2624
You	-11.2624
know	-11.2624
▁äußer	-11.2625
How	-11.2625
kind	-11.2625
door	-11.2626
▁gener	-11.2626
▁gib	-11.2627
play	-11.2629
aked	-11.263
ipe	-11.2635
gestern	-11.2637
Wie	-11.2639
▁behaupte	-11.2641
▁translat	-11.2641
spruch	-11.2641
steckte	-11.2642
▁schnei	-11.2642
made	-11.2642
Do	-11.2645
film	-11.2646
▁Politik	-11.2653
▁Reich	-11.2658
schluss	-11.266
nderung	-11.2662
striche	-11.2664
▁interessiere	-11.267
▁Gruppe	-11.267
form	-11.2671
▁unterscheide	-11.2674
▁fange	-11.2674
fic	-11.2676
▁zähle	-11.2677
▁benutze	-11.2677
▁dauer	-11.2678
lp	-11.2678
▁para	-11.2686
sachen	-11.2686
▁wisse	-11.2687
▁schönste	-11.2689
influss	-11.2691
olved	-11.2693
▁sterbe	-11.2695
con	-11.2697
▁Fris	-11.2701
▁Liste	-11.2702
▁schlaf	-11.2707
▁stranger	-11.2709
▁char	-11.2714
arriage	-11.272
▁schwimme	-11.2726
Da	-11.2727
▁erklärt	-11.2728
▁lüg	-11.2732
▁Franc	-11.2733
▁Georg	-11.2734
▁possibl	-11.2735
▁verlier	-11.2736
lor	-11.2742
ird	-11.2743
▁Wiss	-11.2748
▁recommend	-11.2753
▁Spani	-11.2757
▁cheap	-11.276
trifft	-11.2762
▁scienti	-11.2762
▁cab	-11.2763
▁Des	-11.2763
▁Fehl	-11.2764
icked	-11.2766
halle	-11.2767
▁suppose	-11.2768
dank	-11.2769
tribute	-11.2772
gerufen	-11.2772
▁wä	-11.2774
sorgt	-11.2778
lam	-11.2779
▁sudden	-11.2779
▁quick	-11.278
▁gewinn	-11.2781
▁Ruh	-11.2783
▁receive	-11.2783
▁potato	-11.2786
▁bemerk	-11.2786
abhängig	-11.2787
schrift	-11.2787
▁Johann	-11.2788
▁nois	-11.2788
ühle	-11.279
üsse	-11.2792
▁schrie	-11.2792
▁gering	-11.2793
▁prince	-11.2793
▁origin	-11.2793
ühr	-11.2793
gericht	-11.2793
wimming	-11.2793
ixed	-11.2794
▁Kranken	-11.2794
▁affect	-11.2794
ährt	-11.2794
▁Produ	-11.2794
öffne	-11.2794
träume	-11.2794
aterial	-11.2794
ollege	-11.2795
schieden	-11.2795
▁hä	-11.2795
kunft	-11.2795
▁unemploy	-11.2795
▁sechz	-11.2795
dium	-11.2795
xperience	-11.2795
grenz	-11.2795
chnitt	-11.2795
▁univers	-11.2795
▁differ	-11.2795
▁committ	-11.2796
▁tradition	-11.2796
jäh	-11.2796
▁Meteor	-11.2796
stört	-11.2796
stück	-11.2796
▁oxy	-11.2796
bereitung	-11.2796
telefon	-11.2796
▁Frank	-11.2796
▁uniform	-11.2796
Gesichtsausdruck	-11.2796
Klassenkameraden	-11.2796
akzept	-11.2796
bgelehnt	-11.2796
fähig	-11.2796
geschrien	-11.2796
scribe	-11.2796
significant	-11.2796
▁Akzent	-11.2796
▁Alkohol	-11.2796
▁Archäolog	-11.2796
▁Armbanduhr	-11.2796
▁Bedeutung	-11.2796
▁Besonderes	-11.2796
▁Bibel	-11.2796
▁Bushaltestelle	-11.2796
▁Chemie	-11.2796
▁December	-11.2796
▁Dezember	-11.2796
▁Dummheit	-11.2796
▁Eintrittskarte	-11.2796
▁Energie	-11.2796
▁Erlaubnis	-11.2796
▁Feuerwehr	-11.2796
▁Flederm	-11.2796
▁Fortschritt	-11.2796
▁Freizeit	-11.2796
▁Garage	-11.2796
▁Gebrauchtwagen	-11.2796
▁Geduld	-11.2796
▁Gemahlin	-11.2796
▁Gerücht	-11.2796
▁Geschwister	-11.2796
▁Gewicht	-11.2796
▁Glasscherbe	-11.2796
▁Grüß	-11.2796
▁Halsschmerzen	-11.2796
▁Hälfte	-11.2796
▁Höhe	-11.2796
▁Kanadier	-11.2796
▁Kommentare	-11.2796
▁Kontrolle	-11.2796
▁Kugelschreiber	-11.2796
▁Kultur	-11.2796
▁Körper	-11.2796
▁Lärm	-11.2796
▁Lügner	-11.2796
▁Meeting	-11.2796
▁Meister	-11.2796
▁Mobiltelefon	-11.2796
▁Mädels	-11.2796
▁Nahrung	-11.2796
▁Offizier	-11.2796
▁Parkstraße	-11.2796
▁Privat	-11.2796
▁Programm	-11.2796
▁Publikum	-11.2796
▁Rekord	-11.2796
▁Respekt	-11.2796
▁Rettung	-11.2796
▁Saturday	-11.2796
▁Schlaganfall	-11.2796
▁Schlimme	-11.2796
▁Schluss	-11.2796
▁Schottland	-11.2796
▁Sklave	-11.2796
▁Sonnenbrille	-11.2796
▁Stolz	-11.2796
▁Verbindung	-11.2796
▁Zaun	-11.2796
▁Zent	-11.2796
▁Zuneigung	-11.2796
▁Zweck	-11.2796
▁Züge	-11.2796
▁abandon	-11.2796
▁accustom	-11.2796
▁amazing	-11.2796
▁ambulance	-11.2796
▁announce	-11.2796
▁appointment	-11.2796
▁arguing	-11.2796
▁atmosphere	-11.2796
▁audience	-11.2796
▁aufgehört	-11.2796
▁ausgeraubt	-11.2796
▁beabsichtig	-11.2796
▁beauty	-11.2796
▁befolgen	-11.2796
▁beleidigt	-11.2796
▁beliebte	-11.2796
▁bestürzt	-11.2796
▁beteiligt	-11.2796
▁betreuen	-11.2796
▁bleibst	-11.2796
▁centur	-11.2796
▁citizen	-11.2796
▁civil	-11.2796
▁colleague	-11.2796
▁conference	-11.2796
▁degree	-11.2796
▁devil	-11.2796
▁disagree	-11.2796
▁eilig	-11.2796
▁embarrass	-11.2796
▁employe	-11.2796
▁erschöpft	-11.2796
▁erstaun	-11.2796
▁exercise	-11.2796
▁geirrt	-11.2796
▁gekannt	-11.2796
▁gelebt	-11.2796
▁gelogen	-11.2796
▁gemerkt	-11.2796
▁genossen	-11.2796
▁genuine	-11.2796
▁geregnet	-11.2796
▁geschieht	-11.2796
▁gezwungen	-11.2796
▁ghost	-11.2796
▁gutaussehende	-11.2796
▁gäbe	-11.2796
▁haircut	-11.2796
▁heiratet	-11.2796
▁herausgefunden	-11.2796
▁hervorragend	-11.2796
▁höflich	-11.2796
▁interpret	-11.2796
▁jüngste	-11.2796
▁kostbar	-11.2796
▁kämpfen	-11.2796
▁lächeln	-11.2796
▁magazine	-11.2796
▁method	-11.2796
▁misstrauisch	-11.2796
▁mitgebracht	-11.2796
▁monatlich	-11.2796
▁neighbors	-11.2796
▁pressure	-11.2796
▁purchase	-11.2796
▁purpose	-11.2796
▁quarrel	-11.2796
▁reflect	-11.2796
▁regularly	-11.2796
▁repeat	-11.2796
▁romanti	-11.2796
▁römische	-11.2796
▁saving	-11.2796
▁seldom	-11.2796
▁similar	-11.2796
▁sorgfältig	-11.2796
▁soziale	-11.2796
▁species	-11.2796
▁spoil	-11.2796
▁subject	-11.2796
▁sunglasses	-11.2796
▁surrender	-11.2796
▁trial	-11.2796
▁unbeeindruckt	-11.2796
▁valley	-11.2796
▁valuable	-11.2796
▁verdienen	-11.2796
▁verlobt	-11.2796
▁verwirrt	-11.2796
▁verzweifelt	-11.2796
▁violence	-11.2796
▁vorbereite	-11.2796
▁wunderschön	-11.2796
▁ärgerlich	-11.2796
▁öffentlich	-11.2796
▁örtliche	-11.2796
geprägt	-11.2796
script	-11.2796
▁Afrika	-11.2796
▁Elephant	-11.2796
▁Geräusch	-11.2796
▁Kaiser	-11.2796
▁Käse	-11.2796
▁Video	-11.2796
▁current	-11.2796
▁frighten	-11.2796
▁fundamental	-11.2796
▁gewann	-11.2796
▁italienisch	-11.2796
▁schmutzig	-11.2796
▁spirit	-11.2796
▁unnötig	-11.2796
▁vergnüg	-11.2796
▁veröffentlicht	-11.2796
▁wöchentlich	-11.2796
▁ähnlich	-11.2796
Mail	-11.2796
achtzehn	-11.2796
knallt	-11.2796
nachrichtig	-11.2796
wahl	-11.2796
▁Aufzug	-11.2796
▁Ewigkeit	-11.2796
▁Existenz	-11.2796
▁Flöte	-11.2796
▁Geldautomat	-11.2796
▁Gewissen	-11.2796
▁Irgend	-11.2796
▁Klima	-11.2796
▁Komplize	-11.2796
▁Schraube	-11.2796
▁Sitzungszimmer	-11.2796
▁Süß	-11.2796
▁Unrecht	-11.2796
▁Wohnzimmer	-11.2796
▁Wäsche	-11.2796
▁bestätigen	-11.2796
▁blush	-11.2796
▁conquer	-11.2796
▁drain	-11.2796
▁erlebt	-11.2796
▁exciting	-11.2796
▁frühstücken	-11.2796
▁glove	-11.2796
▁kämm	-11.2796
▁praise	-11.2796
▁probiert	-11.2796
▁quality	-11.2796
▁republic	-11.2796
▁streng	-11.2796
▁strike	-11.2796
▁verstorben	-11.2796
▁wählte	-11.2796
subway	-11.2796
wirkungen	-11.2796
zentrum	-11.2796
▁Golf	-11.2796
▁Pfund	-11.2796
▁Stadion	-11.2796
▁beneide	-11.2796
▁existence	-11.2796
▁false	-11.2796
▁grausam	-11.2796
▁incompetent	-11.2796
▁lohnt	-11.2796
▁mitgeteilt	-11.2796
▁random	-11.2796
▁stundenlang	-11.2796
▁teeth	-11.2796
quote	-11.2796
ziele	-11.2796
▁Fremde	-11.2796
▁Kuh	-11.2796
▁Neuigkeit	-11.2796
▁church	-11.2796
▁deaf	-11.2796
▁drauf	-11.2796
▁gerecht	-11.2796
▁meaningless	-11.2796
▁schwarz	-11.2796
▁stamp	-11.2796
▁wählen	-11.2796
▁Heirat	-11.2796
▁Schild	-11.2796
▁Year	-11.2796
▁abzuschicken	-11.2796
▁camp	-11.2796
▁euro	-11.2796
▁finan	-11.2796
▁haunt	-11.2796
▁verbergen	-11.2796
▁Böse	-11.2796
▁ablehnen	-11.2796
▁eingeschlafen	-11.2796
▁skiing	-11.2796
▁verbessert	-11.2796
▁wealth	-11.2796
▁Füll	-11.2796
▁Nieder	-11.2796
▁erfunden	-11.2796
▁irgendwelche	-11.2796
▁orbit	-11.2796
▁yourselves	-11.2796
geschnitten	-11.2796
▁Arbeitsstelle	-11.2796
▁Probier	-11.2796
▁Sehen	-11.2796
▁evil	-11.2796
▁fotografieren	-11.2796
▁greet	-11.2796
▁pflück	-11.2796
▁reply	-11.2796
knapp	-11.2796
▁Anwalt	-11.2796
▁Geister	-11.2796
▁öfter	-11.2796
▁Blutgruppe	-11.2796
▁accomplished	-11.2796
▁drown	-11.2796
▁gucken	-11.2796
▁pride	-11.2796
▁letztlich	-11.2796
▁Augenblick	-11.2796
▁Parl	-11.2796
▁Scherz	-11.2796
▁Vertrau	-11.2796
achtzig	-11.2796
pflanz	-11.2796
schlapp	-11.2796
▁Herbst	-11.2796
▁Hinweis	-11.2796
▁extra	-11.2796
▁gestritten	-11.2796
▁tickl	-11.2796
▁fence	-11.2796
▁role	-11.2796
▁kosten	-11.2796
orrekt	-11.2796
▁defeat	-11.2796
▁geschäftlich	-11.2796
▁zweifeln	-11.2796
▁Austria	-11.2796
▁tatsächlich	-11.2796
Dauerlauf	-11.2796
chriftsteller	-11.2796
entsprechend	-11.2796
▁Drück	-11.2796
▁Scotland	-11.2796
▁berühr	-11.2796
▁überraschen	-11.2796
sichtlich	-11.2796
▁Natur	-11.2796
▁geplant	-11.2796
▁informiert	-11.2796
▁Alarm	-11.2796
▁blanket	-11.2796
▁schenken	-11.2796
▁waves	-11.2796
loving	-11.2796
▁trauen	-11.2796
rechnet	-11.2796
▁fleißig	-11.2796
▁task	-11.2796
▁Minir	-11.2796
▁beschäftigen	-11.2796
▁entfliehen	-11.2796
▁entschuldigt	-11.2796
▁schütz	-11.2796
▁Chef	-11.2796
▁Rolle	-11.2796
▁mobile	-11.2796
▁tiger	-11.2796
▁Tau	-11.2797
▁High	-11.2797
▁treu	-11.2797
▁Sonnensystem	-11.2797
▁übernachte	-11.2797
▁football	-11.2797
▁traditionelle	-11.2797
▁contradict	-11.2797
▁oppo	-11.2797
▁pets	-11.2797
▁porch	-11.2797
▁dropped	-11.2797
▁odd	-11.2797
▁sexy	-11.2797
frühstückt	-11.2797
▁Entführer	-11.2797
▁vase	-11.2797
▁verraten	-11.2797
▁heutige	-11.2797
▁Summe	-11.2797
▁occurred	-11.2797
▁palace	-11.2797
handlung	-11.2797
▁Weihnachtsmann	-11.2797
▁Blinde	-11.2797
▁Höhle	-11.2797
▁stadium	-11.2797
ähle	-11.2797
▁daraus	-11.2797
Cola	-11.2797
▁dessert	-11.2797
▁honey	-11.2797
▁iron	-11.2797
▁spell	-11.2797
▁harm	-11.2797
▁golf	-11.2797
▁coins	-11.2797
▁Blood	-11.2797
▁beweisen	-11.2797
▁Löwe	-11.2797
▁Mitarbeiter	-11.2797
▁Stör	-11.2797
▁Reinig	-11.2797
▁kündigen	-11.2797
schild	-11.2797
tamin	-11.2797
▁lift	-11.2797
sterreich	-11.2797
text	-11.2797
▁gemalt	-11.2797
▁liegenlassen	-11.2797
▁website	-11.2797
▁Besser	-11.2797
▁Shu	-11.2797
▁psycholog	-11.2797
mittag	-11.2797
▁Gorilla	-11.2797
▁ernähr	-11.2797
▁suspicious	-11.2797
▁Polish	-11.2797
▁size	-11.2797
▁Millionär	-11.2797
▁danach	-11.2797
▁leihen	-11.2797
▁merken	-11.2797
▁meteor	-11.2797
▁sorgen	-11.2797
bsurd	-11.2797
▁Gebiet	-11.2797
▁Tiger	-11.2797
▁shoot	-11.2797
▁festgenommen	-11.2797
▁Spain	-11.2797
▁stamm	-11.2797
▁reagier	-11.2797
▁alkoholische	-11.2797
▁expert	-11.2797
▁steak	-11.2797
▁eighteen	-11.2797
▁nutzte	-11.2797
▁Exfreund	-11.2797
▁Schlafzimmer	-11.2797
▁corner	-11.2797
▁Tief	-11.2797
▁pool	-11.2797
nflug	-11.2797
▁sheep	-11.2797
▁Staub	-11.2797
▁accent	-11.2797
▁factory	-11.2797
▁Wirtschaft	-11.2797
▁salad	-11.2797
▁sechzehn	-11.2797
▁Briefmarke	-11.2797
▁population	-11.2797
▁provide	-11.2797
droht	-11.2797
▁Zuerst	-11.2797
▁decorat	-11.2797
▁flag	-11.2797
▁verboten	-11.2797
▁mosquitoes	-11.2797
▁gebraucht	-11.2797
▁geschlafen	-11.2797
▁Studi	-11.2798
▁curious	-11.2798
▁hire	-11.2798
ktivität	-11.2798
▁cities	-11.2798
azak	-11.2798
ächer	-11.2798
▁strateg	-11.2798
Palast	-11.2798
motive	-11.2798
▁Hochzeit	-11.2798
▁Weisheit	-11.2798
▁erlangen	-11.2798
▁error	-11.2798
▁Vorschrift	-11.2798
▁flute	-11.2798
▁castle	-11.2798
onntag	-11.2798
▁nannte	-11.2798
▁angeboten	-11.2798
▁vain	-11.2798
▁sugar	-11.2798
ausend	-11.2798
▁spread	-11.2798
▁colorful	-11.2798
▁eröffnet	-11.2798
▁darstell	-11.2798
getragen	-11.2798
▁Santa	-11.2798
▁predict	-11.2798
▁endete	-11.2798
▁ernsthaft	-11.2798
▁Medi	-11.2798
▁heilig	-11.2798
▁oven	-11.2798
▁floh	-11.2798
▁protest	-11.2798
▁middle	-11.2798
▁delay	-11.2798
▁Notiz	-11.2798
▁selfish	-11.2798
▁affection	-11.2798
▁science	-11.2798
▁träumen	-11.2798
▁rise	-11.2799
▁access	-11.2799
▁vergangen	-11.2799
▁aufhört	-11.2799
▁majority	-11.2799
▁Asteroid	-11.2799
▁Aufnahme	-11.2799
▁Eifer	-11.2799
▁economic	-11.2799
▁Wild	-11.2799
▁entweder	-11.2799
▁foolish	-11.2799
▁changing	-11.2799
▁cruel	-11.2799
▁comic	-11.2799
▁steigen	-11.2799
bedeckt	-11.2799
▁Platte	-11.2799
▁Neben	-11.2799
▁cheer	-11.2799
▁Geschäftsle	-11.2799
▁syn	-11.2799
▁schneiden	-11.2799
▁verschwende	-11.2799
▁Anspruch	-11.2799
▁begun	-11.28
▁chairman	-11.28
▁auswendig	-11.28
▁justifie	-11.28
▁flies	-11.28
▁passport	-11.28
▁überfüllt	-11.28
händ	-11.28
▁Schulter	-11.28
▁detective	-11.28
schmiss	-11.28
orough	-11.28
▁hinterlassen	-11.28
▁magneti	-11.28
▁discount	-11.28
▁bound	-11.28
▁Graben	-11.28
▁Schub	-11.28
▁flach	-11.28
▁Schlitt	-11.28
▁liar	-11.28
▁branch	-11.28
▁hidden	-11.28
▁behave	-11.28
▁schnitt	-11.28
▁original	-11.28
▁reinkommen	-11.28
▁Bible	-11.2801
inherit	-11.2801
▁model	-11.2801
05	-11.2801
▁invent	-11.2801
▁Menschheit	-11.2801
mahl	-11.2801
▁Jahrhundert	-11.2801
▁Schwert	-11.2801
▁entlassen	-11.2801
▁fingers	-11.2801
▁hierherkommen	-11.2801
verbot	-11.2801
Tomorrow	-11.2801
firm	-11.2801
nished	-11.2801
verage	-11.2801
:00	-11.2801
ordne	-11.2801
▁Zeitschrift	-11.2801
▁Mother	-11.2801
▁pray	-11.2801
▁Beruf	-11.2802
▁screw	-11.2802
▁zahlen	-11.2802
▁topic	-11.2802
▁zurückgekommen	-11.2802
▁politician	-11.2802
▁Herzog	-11.2802
▁Tausend	-11.2802
▁mitzuteilen	-11.2802
▁gold	-11.2802
kasten	-11.2802
▁eyesight	-11.2802
▁begleite	-11.2802
kopf	-11.2802
▁Mauer	-11.2802
▁scene	-11.2802
▁calm	-11.2802
▁dishes	-11.2803
▁fünfund	-11.2803
▁bright	-11.2803
▁ehren	-11.2803
▁overdo	-11.2803
▁gestrichen	-11.2803
▁deliver	-11.2803
▁bestellt	-11.2804
▁wachsen	-11.2804
▁brand	-11.2804
▁difficulties	-11.2804
▁melde	-11.2805
kuchen	-11.2805
▁policeman	-11.2805
▁Theorie	-11.2805
dalen	-11.2805
▁baut	-11.2805
▁ausgestattet	-11.2805
▁Berliner	-11.2805
▁kilomet	-11.2805
▁Schick	-11.2806
wirtschaft	-11.2806
▁couch	-11.2806
▁skin	-11.2806
▁begangen	-11.2806
▁erfüllt	-11.2806
▁beschwi	-11.2806
▁tastes	-11.2806
▁Ecke	-11.2806
holen	-11.2807
▁Hick	-11.2807
▁Rock	-11.2807
▁Fas	-11.2807
▁durcheinander	-11.2807
▁potatoes	-11.2807
▁zero	-11.2807
▁darin	-11.2807
▁menu	-11.2807
nsider	-11.2808
▁scor	-11.2808
▁leise	-11.2808
vity	-11.2808
▁upstairs	-11.2808
▁capt	-11.2808
▁explore	-11.2808
oberfläche	-11.2808
▁putzen	-11.2808
fft	-11.2808
▁Durst	-11.2809
▁Mama	-11.2809
▁Fred	-11.2809
▁alert	-11.2809
▁Miete	-11.2809
▁Mannschaft	-11.2809
▁Patr	-11.2809
▁Kochs	-11.281
▁wheel	-11.281
▁vergiss	-11.281
▁hello	-11.2811
▁wiedersehen	-11.2811
▁persuade	-11.2812
▁Fakten	-11.2812
▁threaten	-11.2812
▁Pfl	-11.2812
▁nein	-11.2812
▁antwortete	-11.2812
▁verlangte	-11.2812
▁Seele	-11.2812
▁verstecken	-11.2812
▁friedlich	-11.2813
liste	-11.2813
▁Ski	-11.2813
▁verfügt	-11.2813
▁Held	-11.2813
▁weggehen	-11.2813
▁hinauf	-11.2813
lumb	-11.2814
feier	-11.2814
▁Nachtisch	-11.2814
▁save	-11.2814
▁cheating	-11.2814
▁annoying	-11.2814
▁Nenn	-11.2815
▁boss	-11.2815
▁Spitz	-11.2815
▁denselben	-11.2815
gesell	-11.2815
▁sales	-11.2816
zis	-11.2816
▁shine	-11.2816
▁chest	-11.2816
ziert	-11.2816
▁pity	-11.2816
▁nick	-11.2816
▁robbed	-11.2816
▁completed	-11.2816
allows	-11.2816
▁carpe	-11.2817
unsch	-11.2818
▁cop	-11.2818
▁vergleichen	-11.2818
▁ebenso	-11.2819
▁composer	-11.2819
▁angeklagt	-11.282
▁vorgestellt	-11.282
▁seeds	-11.282
▁gather	-11.282
▁belt	-11.282
▁Mathematiker	-11.2821
▁approve	-11.2821
▁bedeuten	-11.2822
▁Geige	-11.2823
▁survived	-11.2823
▁progr	-11.2823
▁Spr	-11.2824
▁disappeared	-11.2824
▁erhält	-11.2824
treifen	-11.2825
▁Jean	-11.2825
▁benötigen	-11.2826
▁empfehlen	-11.2826
▁unterstützen	-11.2826
▁verschwinden	-11.2826
▁verspäten	-11.2826
▁spill	-11.2826
abinet	-11.2827
▁Bauch	-11.2827
geworfen	-11.2827
▁dear	-11.2827
▁visitor	-11.2827
▁Fliegen	-11.2828
▁Roy	-11.2828
riminal	-11.2829
▁herausfinde	-11.2829
▁Up	-11.283
schaltet	-11.283
▁Flo	-11.283
▁betrifft	-11.283
▁angenommen	-11.2831
▁Nation	-11.2831
▁verreist	-11.2831
▁erkältet	-11.2832
▁scherzt	-11.2832
bish	-11.2833
▁Pop	-11.2834
olic	-11.2834
▁stieß	-11.2834
▁Arztes	-11.2834
▁data	-11.2835
uffe	-11.2836
▁Roh	-11.2837
▁Tan	-11.2837
▁neg	-11.2838
▁drücken	-11.2838
▁faulen	-11.2839
▁slave	-11.2839
▁Reihe	-11.2839
vide	-11.284
bab	-11.284
▁recommended	-11.284
▁Achte	-11.2841
unabhängige	-11.2842
▁propos	-11.2842
▁gebaut	-11.2843
▁brief	-11.2843
▁bomb	-11.2843
▁Pay	-11.2843
▁schmeckt	-11.2843
▁round	-11.2843
▁blonde	-11.2843
▁served	-11.2843
▁image	-11.2844
▁pflegt	-11.2844
▁Wohl	-11.2844
▁angesehen	-11.2844
▁turtles	-11.2845
▁Zwillings	-11.2845
schalten	-11.2847
▁angenehme	-11.2847
tvolle	-11.2848
▁create	-11.285
▁squa	-11.285
eihen	-11.2852
▁issue	-11.2852
▁Alp	-11.2853
▁contribut	-11.2855
▁vertra	-11.2856
▁beside	-11.2857
▁mittler	-11.2857
▁brennen	-11.2857
melon	-11.2857
▁insulted	-11.2858
▁knocked	-11.2858
▁dessen	-11.2858
▁Gü	-11.2859
▁candy	-11.2859
▁klingelt	-11.2861
▁hierhin	-11.2861
▁träumte	-11.2861
pipe	-11.2862
öhn	-11.2864
stahl	-11.2864
▁Kus	-11.2864
▁active	-11.2864
▁anzunehmen	-11.2865
▁Bekannt	-11.2865
ogging	-11.2866
▁demand	-11.2866
▁Daten	-11.2867
▁Mai	-11.2867
▁stürzte	-11.2867
▁Wellen	-11.2867
▁dunkel	-11.2868
▁moral	-11.2868
kule	-11.2869
▁pie	-11.287
▁begab	-11.2871
▁Lion	-11.2872
▁versa	-11.2873
▁drawing	-11.2874
▁Folgen	-11.2877
▁Wolken	-11.2877
▁überreden	-11.2877
▁schämen	-11.2878
▁entscheiden	-11.2878
▁erinnerst	-11.2879
▁However	-11.2879
▁weich	-11.2879
oney	-11.2879
ruhe	-11.288
motivier	-11.2882
▁beeilen	-11.2883
▁anständige	-11.2883
▁Ernst	-11.2883
alar	-11.2884
▁umzu	-11.2884
mature	-11.2886
dying	-11.2888
▁tast	-11.2889
▁antun	-11.2889
stift	-11.2889
stände	-11.2891
bum	-11.2892
▁beschlossen	-11.2893
▁Vorstellungen	-11.2893
▁verweh	-11.2894
▁gewöhnt	-11.2894
shame	-11.2895
▁benefit	-11.2895
▁Verz	-11.2895
▁poke	-11.2896
▁betreten	-11.2897
▁ergeben	-11.2898
sual	-11.2898
▁bench	-11.29
▁bekommt	-11.29
ior	-11.2901
▁schwieriger	-11.2902
▁butter	-11.2902
▁Kie	-11.2902
possibility	-11.2903
▁Also	-11.2903
▁share	-11.2903
▁soul	-11.2904
▁zurückkommen	-11.2904
▁Anschein	-11.2905
▁fate	-11.2905
▁aufgeben	-11.2908
rieb	-11.291
▁Indian	-11.2911
▁laughed	-11.2911
ppy	-11.2911
▁Lei	-11.2912
collection	-11.2917
ership	-11.2918
▁Vier	-11.2918
▁treib	-11.2919
▁Verkaufen	-11.2921
▁interessanter	-11.2923
▁gelöst	-11.2923
▁vierzig	-11.2923
▁loyal	-11.2923
▁joy	-11.2923
▁lecker	-11.2924
strichen	-11.2924
▁Veran	-11.2924
▁typisch	-11.2925
▁liegen	-11.2928
bridge	-11.2929
▁classmates	-11.2929
▁bananas	-11.2929
▁vegetables	-11.2929
▁teilen	-11.2932
▁schnarch	-11.2933
▁Talk	-11.2934
▁annehmen	-11.2938
▁negativ	-11.2945
▁Ly	-11.2946
▁fishing	-11.2946
▁compa	-11.2948
▁starr	-11.295
▁schönsten	-11.2951
▁Ele	-11.2957
▁behauptet	-11.2958
jahr	-11.296
▁Schna	-11.2966
▁stronger	-11.2968
11	-11.2971
▁roll	-11.2975
▁gate	-11.2979
▁Schulden	-11.2979
▁Falle	-11.2983
▁snowing	-11.2983
▁verärgerte	-11.2985
▁wohnen	-11.2985
▁Rosen	-11.2987
spur	-11.2989
gro	-11.299
▁beherrsch	-11.2992
▁mathematic	-11.2996
isco	-11.2999
▁dreaming	-11.2999
▁bud	-11.3002
▁Schlafen	-11.3005
irds	-11.3008
▁March	-11.3009
▁verrichte	-11.3011
▁bewegen	-11.3016
▁strangers	-11.3016
▁clouds	-11.3017
angsam	-11.3019
▁Comic	-11.3023
ließ	-11.3024
▁Day	-11.3026
▁gerei	-11.3034
▁snore	-11.3035
▁lachten	-11.3038
uta	-11.3041
ussreich	-11.3042
▁Schlag	-11.3047
▁miner	-11.3049
▁Straf	-11.3056
redder	-11.306
▁blo	-11.3063
▁cultur	-11.3066
▁dye	-11.3071
ürze	-11.3074
ley	-11.3081
▁leichtes	-11.3087
▁Männern	-11.3092
▁Kno	-11.3104
▁Fahren	-11.3108
usage	-11.3112
▁vorge	-11.3117
▁cru	-11.3121
risch	-11.3122
▁Zeitungen	-11.3125
wechseln	-11.3126
rett	-11.3131
▁controll	-11.3136
▁career	-11.314
▁Rent	-11.3147
▁erschein	-11.3149
▁Buches	-11.3155
ßt	-11.3158
▁verbring	-11.3162
▁Dienst	-11.3164
did	-11.3165
öchst	-11.3168
reservation	-11.317
▁invest	-11.3172
theorie	-11.3174
though	-11.3179
ewusst	-11.3181
miert	-11.3182
ardo	-11.3184
▁attract	-11.3187
resh	-11.3194
▁schaffte	-11.3196
▁Arten	-11.3206
▁duty	-11.3219
forests	-11.3223
▁verführe	-11.3225
▁imp	-11.3245
▁Leit	-11.3253
▁Deutschen	-11.3263
▁keeping	-11.3267
kleidet	-11.3267
zulaufen	-11.3273
steig	-11.3278
ziell	-11.3283
opf	-11.33
▁versp	-11.3371
▁shar	-11.3384
▁käme	-11.3385
▁freut	-11.3388
orb	-11.3409
Morde	-11.3413
serves	-11.3448
lent	-11.3451
▁Hal	-11.3451
▁Zeig	-11.3457
lucky	-11.3467
innen	-11.3469
gefahren	-11.3475
gründ	-11.3475
öhl	-11.3479
▁prima	-11.3482
▁belegt	-11.3507
atmen	-11.3513
glichen	-11.3514
mtlich	-11.3533
▁writer	-11.3554
mpf	-11.3586
pra	-11.359
freie	-11.3624
▁Peni	-11.3663
▁wit	-11.3667
▁grüne	-11.367
▁cra	-11.3679
▁Verb	-11.3702
crowded	-11.371
rasch	-11.3754
etwegen	-11.381
▁misunderst	-11.381
▁Dani	-11.3857
gewichtig	-11.3876
▁Tak	-11.3893
zy	-11.3976
ffel	-11.4022
▁erinnerte	-11.4033
▁Ga	-11.4043
anger	-11.4043
▁Goo	-11.4051
zige	-11.4095
▁Haustiere	-11.4111
inguis	-11.4139
fälle	-11.4144
ernacht	-11.4199
lves	-11.4202
▁bestelle	-11.422
programm	-11.4226
rgin	-11.4242
hopin	-11.4268
▁Emp	-11.4302
ichtigkeit	-11.4314
▁eviden	-11.4322
dates	-11.4323
▁concentrate	-11.4331
schickte	-11.4336
▁verw	-11.4366
▁kennenlernt	-11.4366
aket	-11.4412
imp	-11.4413
▁emb	-11.444
ality	-11.4464
▁Fra	-11.4466
▁ni	-11.4496
klass	-11.4499
ather	-11.4507
▁Kla	-11.4512
▁imagin	-11.4526
lation	-11.4537
▁Cop	-11.4549
▁Abwas	-11.4552
wiesen	-11.4615
äume	-11.4632
▁irgendein	-11.4633
udge	-11.466
▁überquert	-11.4679
▁täusch	-11.4716
arsch	-11.4719
vorkommen	-11.4721
▁zerstörte	-11.4741
artial	-11.4815
existieren	-11.4845
Who	-11.4849
schrieb	-11.4907
▁Pol	-11.4909
fri	-11.4936
▁Eat	-11.4936
▁prec	-11.4955
engel	-11.498
reck	-11.4988
seas	-11.499
you	-11.5001
ately	-11.5002
▁communicat	-11.5023
▁Wär	-11.5071
▁Dara	-11.5082
packen	-11.5111
▁seduc	-11.5118
iddle	-11.5161
▁Ziele	-11.5184
▁wu	-11.519
ätz	-11.5254
mischen	-11.5255
rechst	-11.5278
▁nirgendwo	-11.5281
▁wiederkomme	-11.5319
▁neueste	-11.5343
raged	-11.5382
ril	-11.5389
klebe	-11.5406
eut	-11.5459
▁Lib	-11.5474
airs	-11.5488
▁schwach	-11.5497
selben	-11.5531
robe	-11.5546
eilte	-11.5554
warf	-11.5618
lief	-11.5674
▁Pak	-11.5693
nched	-11.5729
ugged	-11.5766
stehe	-11.579
fäll	-11.5802
leuchtet	-11.5842
achtung	-11.5861
cted	-11.5907
iction	-11.5912
redit	-11.5956
Lock	-11.5961
▁Haustier	-11.5966
wissenschaft	-11.5987
leisch	-11.5998
cated	-11.6008
Spieler	-11.6087
▁fi	-11.6088
▁Bac	-11.61
▁Lö	-11.6172
suchen	-11.6208
▁kla	-11.6238
▁200	-11.6249
agge	-11.6269
▁weiterzu	-11.6272
▁seltsam	-11.6285
▁süß	-11.6298
äuber	-11.6343
▁incre	-11.6383
decke	-11.6421
mugg	-11.6498
▁Fau	-11.6551
▁küsst	-11.6698
illin	-11.6705
▁prim	-11.6773
resist	-11.681
itten	-11.6816
▁hingeg	-11.6833
azed	-11.6851
▁Schä	-11.6895
▁freute	-11.6899
fully	-11.691
▁riech	-11.6918
▁locat	-11.6947
▁gestand	-11.696
treff	-11.6968
bringst	-11.6974
▁veränder	-11.6999
fassung	-11.7019
bringen	-11.7041
kleide	-11.7071
pon	-11.7135
ibi	-11.7143
▁meiste	-11.7155
▁Schal	-11.7183
ility	-11.7186
▁var	-11.7209
istic	-11.7245
Bas	-11.7264
▁hinzu	-11.7276
mbling	-11.7287
icia	-11.7312
erkannt	-11.7318
▁Wichtig	-11.7339
rspr	-11.7342
▁import	-11.7408
komm	-11.7416
▁entfern	-11.7434
orders	-11.7459
▁zurückzu	-11.7462
atten	-11.7467
▁sna	-11.7479
eparat	-11.7495
gelangen	-11.7517
uatsch	-11.7518
▁Strei	-11.7521
low	-11.7528
▁Anti	-11.753
gua	-11.7533
▁versteh	-11.7535
gged	-11.7536
bietet	-11.7539
wickelt	-11.7542
▁erzähl	-11.7565
▁Arbeitslos	-11.7574
zuhören	-11.7575
▁zerstör	-11.7577
▁banana	-11.7583
▁vegetable	-11.7583
▁faul	-11.7585
reib	-11.7586
▁verhafte	-11.7587
hielt	-11.7589
zieh	-11.7589
▁automat	-11.7589
▁classmate	-11.759
ridge	-11.7591
joy	-11.7591
liegen	-11.7592
vierzig	-11.7592
loyal	-11.7592
negativ	-11.7592
moral	-11.7593
▁intention	-11.7593
▁fac	-11.7595
studi	-11.7596
chnarchen	-11.7596
offen	-11.76
▁grun	-11.76
kennen	-11.76
impressed	-11.7601
Nothing	-11.7601
weight	-11.7601
lecker	-11.7602
Y	-11.7602
treiben	-11.7603
augh	-11.7604
special	-11.7604
gesprochen	-11.7605
bord	-11.7605
zulege	-11.7606
gelöst	-11.7608
block	-11.7609
expected	-11.761
streiten	-11.761
▁hur	-11.7611
box	-11.7611
erwartete	-11.7611
▁bewunder	-11.7613
▁dreizehn	-11.7613
▁diskutier	-11.7613
shirt	-11.7613
▁India	-11.7614
France	-11.7614
schlug	-11.7614
N	-11.7615
woke	-11.7615
restaurant	-11.7616
writing	-11.7616
möglich	-11.7616
▁term	-11.7616
geschafft	-11.7617
mögen	-11.7617
Nichts	-11.7617
fragen	-11.7618
zufrieden	-11.7618
heben	-11.7618
gehalt	-11.7619
gewöhnlich	-11.7619
word	-11.7619
thirty	-11.762
normal	-11.762
front	-11.7621
Bob	-11.7621
heart	-11.7622
Com	-11.7622
Komm	-11.7622
half	-11.7622
jemand	-11.7622
schön	-11.7623
person	-11.7623
fertig	-11.7623
bekannt	-11.7623
looking	-11.7623
C	-11.7624
Oh	-11.7624
house	-11.7625
place	-11.7625
Why	-11.7627
▁gewöhn	-11.7627
Mary	-11.7628
post	-11.7628
darf	-11.7632
besser	-11.7632
illensstark	-11.7634
She	-11.7635
dresse	-11.7636
▁kid	-11.7637
werden	-11.7638
panischen	-11.7642
Die	-11.7642
▁nimm	-11.7645
likely	-11.7649
durch	-11.765
▁patien	-11.7658
▁Hä	-11.7658
▁respekt	-11.7662
Ein	-11.7663
viel	-11.7663
▁entscheide	-11.7666
▁Folge	-11.7666
▁zurückkomme	-11.7666
▁Wolke	-11.7666
▁überrede	-11.7666
▁schäme	-11.7666
▁Zigarette	-11.7667
▁schwimm	-11.7667
▁relativ	-11.767
▁Jon	-11.7671
▁Händ	-11.7671
▁führe	-11.7671
some	-11.7674
▁Waffe	-11.7675
▁tru	-11.7675
▁Blume	-11.7681
▁Russia	-11.7681
▁Fahrstu	-11.7682
▁lache	-11.7683
▁stürz	-11.7684
▁Sorge	-11.7684
▁bleibe	-11.7685
fühl	-11.7685
zumi	-11.7692
wol	-11.7694
reaming	-11.7695
▁Fernseh	-11.7696
öner	-11.7701
spitze	-11.7702
opped	-11.7703
▁celebr	-11.7704
ahmen	-11.7706
ja	-11.7707
▁Blei	-11.7708
erweile	-11.7708
nything	-11.7708
▁brenn	-11.7709
▁crea	-11.7709
▁fü	-11.771
etzung	-11.7712
prob	-11.7712
▁fee	-11.7717
fight	-11.7722
▁Gegen	-11.7723
▁Dei	-11.7725
▁annoy	-11.7726
brot	-11.7726
▁drück	-11.7728
▁Bak	-11.7729
▁Elefant	-11.7731
cold	-11.7731
▁Lauf	-11.7734
▁entschied	-11.7734
lernst	-11.7734
üste	-11.774
▁Bau	-11.774
hoo	-11.7743
attacke	-11.7743
▁Krimi	-11.7744
▁roo	-11.7747
▁complete	-11.7748
▁Hilf	-11.7748
olera	-11.775
▁Wür	-11.775
▁disappear	-11.7753
▁surviv	-11.7753
bedeutend	-11.7755
▁confus	-11.7755
▁Mathematik	-11.7756
▁arrest	-11.7758
trunken	-11.7758
▁argue	-11.7761
▁streiche	-11.7762
jenige	-11.7762
▁schä	-11.7763
▁Häus	-11.7763
▁robbe	-11.7764
▁Lehre	-11.7765
▁retire	-11.7765
älle	-11.7766
▁ausgeh	-11.7767
eath	-11.7768
▁surprise	-11.7768
gewachsen	-11.7769
lanc	-11.777
▁erfr	-11.7774
▁proper	-11.7776
▁Mess	-11.7777
▁constant	-11.7779
leep	-11.778
▁Schwar	-11.778
stration	-11.7782
haupt	-11.7782
▁Italien	-11.7783
▁Januar	-11.7783
genehm	-11.7784
fügte	-11.7784
▁symp	-11.7785
▁elect	-11.7785
▁famil	-11.7786
erhalte	-11.7786
▁cloth	-11.7788
ideo	-11.7788
fliege	-11.7788
merkte	-11.7789
zeln	-11.7789
lace	-11.779
berleg	-11.779
▁Zauber	-11.7791
punkt	-11.7791
laden	-11.7792
ralien	-11.7792
wandt	-11.7792
größe	-11.7792
▁Schauspieler	-11.7792
▁Atlanti	-11.7792
▁cheat	-11.7792
tütz	-11.7792
cience	-11.7793
rüfung	-11.7793
förder	-11.7793
eschwindigkeit	-11.7793
dollar	-11.7793
definite	-11.7793
bschr	-11.7793
▁Heimwe	-11.7793
ittelalter	-11.7794
schneide	-11.7794
eschichte	-11.7794
ätsel	-11.7794
▁Toki	-11.7794
leitet	-11.7794
osquitoes	-11.7794
unfall	-11.7794
hildren	-11.7794
92	-11.7795
▁Rache	-11.7795
orrect	-11.7795
▁alkohol	-11.7795
▁schief	-11.7795
agiere	-11.7795
nttäusch	-11.7795
ducation	-11.7795
boden	-11.7795
ology	-11.7795
ample	-11.7795
▁Glä	-11.7795
eantwortet	-11.7796
eautiful	-11.7796
▁Weihnachts	-11.7796
▁sym	-11.7796
▁occur	-11.7796
igentlich	-11.7796
stärke	-11.7796
keln	-11.7796
▁Geheim	-11.7796
▁räu	-11.7796
mäß	-11.7796
ario	-11.7796
▁Ehrlich	-11.7796
velope	-11.7796
ollow	-11.7796
gratul	-11.7796
▁Schrift	-11.7796
jin	-11.7796
▁Carl	-11.7796
▁Speise	-11.7796
▁Brit	-11.7796
▁Kilo	-11.7796
ntelligen	-11.7796
ürlich	-11.7796
Herzego	-11.7796
plauder	-11.7796
▁Clowns	-11.7796
▁Obdachlosen	-11.7796
▁Rabatt	-11.7796
▁frustr	-11.7796
▁neighbourhood	-11.7796
▁unbeliev	-11.7796
▁väterliche	-11.7796
Muiriel	-11.7796
hüpf	-11.7796
inguaphile	-11.7796
orporal	-11.7796
phrase	-11.7796
rchaeolog	-11.7796
▁Afghanistan	-11.7796
▁Benutzer	-11.7796
▁McDonald	-11.7796
▁Revolution	-11.7796
▁Strong	-11.7796
▁Südamerika	-11.7796
▁Verdacht	-11.7796
▁aeroplane	-11.7796
▁aggressiv	-11.7796
▁enterprise	-11.7796
▁fasci	-11.7796
▁hiccup	-11.7796
▁intimidat	-11.7796
▁journey	-11.7796
▁kletter	-11.7796
▁length	-11.7796
▁miniskirt	-11.7796
▁motorcycle	-11.7796
▁neighbour	-11.7796
▁observation	-11.7796
▁prakti	-11.7796
▁princip	-11.7796
▁regulation	-11.7796
▁signature	-11.7796
▁terrifi	-11.7796
JUMP	-11.7796
Objection	-11.7796
Shirt	-11.7796
aime	-11.7796
aiwan	-11.7796
akistani	-11.7796
apparat	-11.7796
athedral	-11.7796
berdosis	-11.7796
bevölkerung	-11.7796
blätt	-11.7796
ctivity	-11.7796
echanik	-11.7796
eleuchtung	-11.7796
geduldig	-11.7796
glaublich	-11.7796
gypten	-11.7796
hampagne	-11.7796
hilosoph	-11.7796
hubby	-11.7796
hänomen	-11.7796
inosaur	-11.7796
kamera	-11.7796
kenntnisse	-11.7796
kommunizier	-11.7796
käuf	-11.7796
körperlich	-11.7796
ladisla	-11.7796
laustrophob	-11.7796
maschine	-11.7796
mitternächtliche	-11.7796
mäht	-11.7796
nderground	-11.7796
nniversar	-11.7796
ograph	-11.7796
osmonaut	-11.7796
otential	-11.7796
plexe	-11.7796
produkt	-11.7796
prügelt	-11.7796
ptimist	-11.7796
rachnophobi	-11.7796
ranwachsende	-11.7796
schüler	-11.7796
schüttet	-11.7796
strahlung	-11.7796
sundheitsproblem	-11.7796
transplant	-11.7796
uftverschmutzung	-11.7796
wiegend	-11.7796
xponential	-11.7796
yramid	-11.7796
▁Aberglaube	-11.7796
▁Andromedae	-11.7796
▁Arabic	-11.7796
▁Arbeitssuche	-11.7796
▁Argentini	-11.7796
▁Aufmerksamkeit	-11.7796
▁Ausbildung	-11.7796
▁Ausdrücke	-11.7796
▁Ausländer	-11.7796
▁Bedienung	-11.7796
▁Bedingungen	-11.7796
▁Begreif	-11.7796
▁Berggipfel	-11.7796
▁Bestraf	-11.7796
▁Bevölkerungs	-11.7796
▁Blätter	-11.7796
▁Bonbons	-11.7796
▁Brandenburg	-11.7796
▁Brasilianer	-11.7796
▁Brust	-11.7796
▁Bären	-11.7796
▁Certainly	-11.7796
▁Denglis	-11.7796
▁Disneyland	-11.7796
▁Egypt	-11.7796
▁Einladung	-11.7796
▁Elektrizität	-11.7796
▁Entwicklungs	-11.7796
▁Erwachsene	-11.7796
▁Fahrräder	-11.7796
▁Fantas	-11.7796
▁Februar	-11.7796
▁Frisör	-11.7796
▁Führerschein	-11.7796
▁Gemeinsamkeiten	-11.7796
▁Geschmack	-11.7796
▁Gestalt	-11.7796
▁Gewinn	-11.7796
▁Giada	-11.7796
▁Großbritannien	-11.7796
▁Haltestelle	-11.7796
▁Halunke	-11.7796
▁Herausforderung	-11.7796
▁Hinter	-11.7796
▁Hühner	-11.7796
▁Incitatus	-11.7796
▁Instinkt	-11.7796
▁Institut	-11.7796
▁Interesse	-11.7796
▁Intoleranz	-11.7796
▁Jagdschein	-11.7796
▁Jüngste	-11.7796
▁Kampfkunst	-11.7796
▁Kaninchen	-11.7796
▁Kellner	-11.7796
▁Kletter	-11.7796
▁Koffein	-11.7796
▁Komödie	-11.7796
▁Kontakt	-11.7796
▁Korrigier	-11.7796
▁Krawatte	-11.7796
▁Kumiko	-11.7796
▁Käfer	-11.7796
▁Kühlschrank	-11.7796
▁Läufer	-11.7796
▁Magenschmerzen	-11.7796
▁Marathon	-11.7796
▁Menschenmenge	-11.7796
▁Mexican	-11.7796
▁Misserfolg	-11.7796
▁Missverständnis	-11.7796
▁Mitglied	-11.7796
▁März	-11.7796
▁Nachhauseweg	-11.7796
▁Nagasaki	-11.7796
▁Nagashima	-11.7796
▁Nagoya	-11.7796
▁Nudeln	-11.7796
▁Nägel	-11.7796
▁Obvious	-11.7796
▁Ocean	-11.7796
▁Okinawa	-11.7796
▁Oxford	-11.7796
▁Phantasie	-11.7796
▁Philippine	-11.7796
▁Pluto	-11.7796
▁Polyglot	-11.7796
▁Portugal	-11.7796
▁Postkarte	-11.7796
▁Rapunzel	-11.7796
▁Reihenfolge	-11.7796
▁Republic	-11.7796
▁Röntgen	-11.7796
▁SSH	-11.7796
▁Sandwich	-11.7796
▁Sanität	-11.7796
▁Satelliten	-11.7796
▁Satoyama	-11.7796
▁Sauerstoff	-11.7796
▁Sawada	-11.7796
▁Scheidung	-11.7796
▁Schlaumeier	-11.7796
▁Schlips	-11.7796
▁Schmetterling	-11.7796
▁Schnurrbart	-11.7796
▁Schublade	-11.7796
▁Schwimmbecken	-11.7796
▁Selbstgespräche	-11.7796
▁Sommerferien	-11.7796
▁Sozialis	-11.7796
▁Stradivari	-11.7796
▁Suddenly	-11.7796
▁System	-11.7796
▁Säugetier	-11.7796
▁Taifun	-11.7796
▁Tamaro	-11.7796
▁Taninna	-11.7796
▁Tavern	-11.7796
▁Teutoburg	-11.7796
▁Text	-11.7796
▁Ticket	-11.7796
▁Timmy	-11.7796
▁Todesopfer	-11.7796
▁Trompete	-11.7796
▁Tyrann	-11.7796
▁Vase	-11.7796
▁Verabredung	-11.7796
▁Verfügung	-11.7796
▁Verspätung	-11.7796
▁Veränderung	-11.7796
▁Volapük	-11.7796
▁Wednesday	-11.7796
▁Weihnachtsbaum	-11.7796
▁Zahn	-11.7796
▁Zusammen	-11.7796
▁Zusammenhang	-11.7796
▁Zwing	-11.7796
▁Zähne	-11.7796
▁abwarten	-11.7796
▁angelogen	-11.7796
▁anstrengen	-11.7796
▁applaud	-11.7796
▁approximat	-11.7796
▁attraktiv	-11.7796
▁aufgeräumt	-11.7796
▁ausdrücken	-11.7796
▁autumn	-11.7796
▁baggage	-11.7796
▁barriers	-11.7796
▁begraben	-11.7796
▁beliebige	-11.7796
▁benannt	-11.7796
▁benötigte	-11.7796
▁beschweren	-11.7796
▁buchstabiert	-11.7796
▁caffeine	-11.7796
▁ceiling	-11.7796
▁cellphone	-11.7796
▁character	-11.7796
▁charismati	-11.7796
▁chemical	-11.7796
▁childhood	-11.7796
▁cockroaches	-11.7796
▁collapse	-11.7796
▁consequences	-11.7796
▁contact	-11.7796
▁crocodile	-11.7796
▁crowbar	-11.7796
▁cucumber	-11.7796
▁debate	-11.7796
▁declining	-11.7796
▁departure	-11.7796
▁devices	-11.7796
▁disease	-11.7796
▁disguise	-11.7796
▁disgust	-11.7796
▁download	-11.7796
▁downtown	-11.7796
▁dreckige	-11.7796
▁durchnässt	-11.7796
▁economy	-11.7796
▁egoistisch	-11.7796
▁eingeschlossen	-11.7796
▁einkaufen	-11.7796
▁einschüchtern	-11.7796
▁empfohlen	-11.7796
▁enchantress	-11.7796
▁entgegen	-11.7796
▁erblinde	-11.7796
▁erfreuen	-11.7796
▁erschreckt	-11.7796
▁europäische	-11.7796
▁faltet	-11.7796
▁fatigue	-11.7796
▁female	-11.7796
▁frequently	-11.7796
▁garbage	-11.7796
▁gefiel	-11.7796
▁geheimhalten	-11.7796
▁gekocht	-11.7796
▁gemeldet	-11.7796
▁gemietet	-11.7796
▁gerannt	-11.7796
▁geschaut	-11.7796
▁gesperrt	-11.7796
▁gesteckt	-11.7796
▁gorgeous	-11.7796
▁grammar	-11.7796
▁grandparents	-11.7796
▁griechische	-11.7796
▁gunshot	-11.7796
▁günstige	-11.7796
▁hammer	-11.7796
▁heavily	-11.7796
▁humiliat	-11.7796
▁hysteri	-11.7796
▁iPhone	-11.7796
▁illegal	-11.7796
▁imitate	-11.7796
▁incident	-11.7796
▁include	-11.7796
▁incurable	-11.7796
▁injuries	-11.7796
▁insecure	-11.7796
▁instinktiv	-11.7796
▁intolerance	-11.7796
▁jewelry	-11.7796
▁jubelte	-11.7796
▁kitzlig	-11.7796
▁klicken	-11.7796
▁korrigier	-11.7796
▁korrumpiert	-11.7796
▁künstlerische	-11.7796
▁lächerlich	-11.7796
▁lärmende	-11.7796
▁marathon	-11.7796
▁mechanic	-11.7796
▁multiply	-11.7796
▁mutmaßliche	-11.7796
▁neugierig	-11.7796
▁nirgend	-11.7796
▁obligation	-11.7796
▁optimistic	-11.7796
▁optimistisch	-11.7796
▁phenomen	-11.7796
▁physic	-11.7796
▁pillow	-11.7796
▁pilot	-11.7796
▁polish	-11.7796
▁postcard	-11.7796
▁presence	-11.7796
▁proletaria	-11.7796
▁prophe	-11.7796
▁prächtige	-11.7796
▁punctuation	-11.7796
▁qualif	-11.7796
▁quantities	-11.7796
▁recognise	-11.7796
▁rejoice	-11.7796
▁relax	-11.7796
▁relieve	-11.7796
▁repay	-11.7796
▁replied	-11.7796
▁response	-11.7796
▁revolution	-11.7796
▁rücksichtsvoll	-11.7796
▁satellite	-11.7796
▁schwebte	-11.7796
▁scissors	-11.7796
▁sitzenlassen	-11.7796
▁slippe	-11.7796
▁sprecht	-11.7796
▁stirbt	-11.7796
▁strawberries	-11.7796
▁strict	-11.7796
▁stuff	-11.7796
▁stumpfsinnig	-11.7796
▁sturzbetrunken	-11.7796
▁sunshine	-11.7796
▁supplie	-11.7796
▁surgery	-11.7796
▁surprising	-11.7796
▁tapfere	-11.7796
▁tribe	-11.7796
▁trigonometri	-11.7796
▁triumph	-11.7796
▁trumpet	-11.7796
▁twentieth	-11.7796
▁unangenehm	-11.7796
▁uncool	-11.7796
▁unfriendly	-11.7796
▁unzureichend	-11.7796
▁vaginal	-11.7796
▁verbreitet	-11.7796
▁verfasst	-11.7796
▁verlauten	-11.7796
▁verläss	-11.7796
▁vermutlich	-11.7796
▁verschwiegen	-11.7796
▁verschwitzt	-11.7796
▁versichert	-11.7796
▁verwirk	-11.7796
▁violin	-11.7796
▁virtu	-11.7796
▁widerrechtlich	-11.7796
▁wizard	-11.7796
▁ängst	-11.7796
▁überglücklich	-11.7796
pflichte	-11.7796
▁Cali	-11.7796
▁Dokument	-11.7796
▁Gebrauch	-11.7796
▁fierce	-11.7796
axophon	-11.7796
beheizt	-11.7796
cessor	-11.7796
feuert	-11.7796
fälsch	-11.7796
gefressen	-11.7796
gespannt	-11.7796
irgenwo	-11.7796
jolie	-11.7796
rücksicht	-11.7796
schreiber	-11.7796
▁Angli	-11.7796
▁Arthur	-11.7796
▁Aufenthalt	-11.7796
▁Brüste	-11.7796
▁Eigenschaft	-11.7796
▁Elise	-11.7796
▁Expert	-11.7796
▁Gaza	-11.7796
▁Guam	-11.7796
▁Hebräisch	-11.7796
▁Kommiliton	-11.7796
▁Lebenswillen	-11.7796
▁Mandarin	-11.7796
▁Motorrad	-11.7796
▁Müsst	-11.7796
▁Neugier	-11.7796
▁Proletari	-11.7796
▁Protestant	-11.7796
▁Schluck	-11.7796
▁Unwetter	-11.7796
▁Verpflichtung	-11.7796
▁Wahrscheinlich	-11.7796
▁Yumi	-11.7796
▁alphabeti	-11.7796
▁analysis	-11.7796
▁aufregend	-11.7796
▁beraubt	-11.7796
▁beschütz	-11.7796
▁besprochen	-11.7796
▁beträchtlich	-11.7796
▁beunruhig	-11.7796
▁bleeding	-11.7796
▁bullet	-11.7796
▁chemistry	-11.7796
▁confiden	-11.7796
▁corrupt	-11.7796
▁curtains	-11.7796
▁decline	-11.7796
▁deutlich	-11.7796
▁effektiv	-11.7796
▁entspann	-11.7796
▁frog	-11.7796
▁geerbt	-11.7796
▁gegenseitig	-11.7796
▁genüg	-11.7796
▁gesamte	-11.7796
▁grill	-11.7796
▁influen	-11.7796
▁klug	-11.7796
▁nature	-11.7796
▁platin	-11.7796
▁possess	-11.7796
▁resign	-11.7796
▁sacred	-11.7796
▁silver	-11.7796
▁simul	-11.7796
▁swam	-11.7796
▁unheilbar	-11.7796
▁verschließ	-11.7796
▁verschob	-11.7796
▁überlebt	-11.7796
▁überprüf	-11.7796
Sputnik	-11.7796
auerkraut	-11.7796
außen	-11.7796
gula	-11.7796
iagonal	-11.7796
imina	-11.7796
kraini	-11.7796
opath	-11.7796
wässer	-11.7796
ylinder	-11.7796
▁Bremse	-11.7796
▁Claus	-11.7796
▁Friedhof	-11.7796
▁Frucht	-11.7796
▁Hammer	-11.7796
▁Jenny	-11.7796
▁Süden	-11.7796
▁Toilette	-11.7796
▁Verstecken	-11.7796
▁Videospiele	-11.7796
▁Zwischen	-11.7796
▁adult	-11.7796
▁belanglos	-11.7796
▁bequeme	-11.7796
▁bucket	-11.7796
▁conscience	-11.7796
▁ermorde	-11.7796
▁geriet	-11.7796
▁kälter	-11.7796
▁längste	-11.7796
▁motivat	-11.7796
▁naughty	-11.7796
▁pandas	-11.7796
▁prize	-11.7796
▁region	-11.7796
▁richtungs	-11.7796
▁rival	-11.7796
▁sandal	-11.7796
▁whisky	-11.7796
alax	-11.7796
etition	-11.7796
▁Achtung	-11.7796
▁Grenze	-11.7796
▁Kenntnis	-11.7796
▁Korol	-11.7796
▁Utopi	-11.7796
▁arabisch	-11.7796
▁bäte	-11.7796
▁dankbar	-11.7796
▁detailliert	-11.7796
▁dumped	-11.7796
▁feucht	-11.7796
▁fremd	-11.7796
▁guide	-11.7796
▁queen	-11.7796
▁suspect	-11.7796
▁verwenden	-11.7796
▁widme	-11.7796
▁Bomben	-11.7796
▁Drink	-11.7796
▁Einkauf	-11.7796
▁Ferien	-11.7796
▁Kazuo	-11.7796
▁Pilot	-11.7796
▁Tipp	-11.7796
▁andauernd	-11.7796
▁balance	-11.7796
▁entrance	-11.7796
▁heavens	-11.7796
▁miracle	-11.7796
▁observe	-11.7796
▁stretch	-11.7796
bogen	-11.7796
gehandelt	-11.7796
röste	-11.7796
ynonym	-11.7796
▁Botschaft	-11.7796
▁Christ	-11.7796
▁Juli	-11.7796
▁Kobold	-11.7796
▁Kälte	-11.7796
▁Meva	-11.7796
▁Nettes	-11.7796
▁Rela	-11.7796
▁Zuhause	-11.7796
▁analyti	-11.7796
▁besagt	-11.7796
▁beschwert	-11.7796
▁clown	-11.7796
▁conclu	-11.7796
▁easier	-11.7796
▁promot	-11.7796
abbits	-11.7796
schnapp	-11.7796
ymnasi	-11.7796
▁Belgi	-11.7796
▁nennst	-11.7796
▁strip	-11.7796
eppich	-11.7796
gegossen	-11.7796
urkey	-11.7796
▁Dobro	-11.7796
▁Nüssen	-11.7796
▁Schmuck	-11.7796
▁Socialis	-11.7796
▁Time	-11.7796
▁Titel	-11.7796
▁adapt	-11.7796
▁conscious	-11.7796
▁contract	-11.7796
▁critical	-11.7796
▁double	-11.7796
▁fänden	-11.7796
▁isolated	-11.7796
▁plausib	-11.7796
▁skirt	-11.7796
▁verbessern	-11.7796
▁Kollegen	-11.7796
▁brakes	-11.7796
▁fürchterlich	-11.7796
▁pleite	-11.7796
Speicher	-11.7796
jolly	-11.7796
mmigrant	-11.7796
roati	-11.7796
rwartung	-11.7796
wächter	-11.7796
▁90	-11.7796
▁Blödsinn	-11.7796
▁Mischung	-11.7796
▁Wechsel	-11.7796
▁Whisky	-11.7796
▁hinzufüg	-11.7796
▁operier	-11.7796
▁puppy	-11.7796
▁shiver	-11.7796
▁sinnlos	-11.7796
Ebenda	-11.7796
chmeichel	-11.7796
exic	-11.7796
fortunate	-11.7796
herging	-11.7796
ilaf	-11.7796
samkeit	-11.7796
sätzlich	-11.7796
venture	-11.7796
▁Betrieb	-11.7796
▁Buben	-11.7796
▁Chile	-11.7796
▁Neues	-11.7796
▁forbid	-11.7796
▁mystery	-11.7796
▁proceed	-11.7796
▁schwieg	-11.7796
▁temporar	-11.7796
▁tyran	-11.7796
nstalten	-11.7796
▁Mehl	-11.7796
▁honor	-11.7796
aliforni	-11.7796
finster	-11.7796
▁Perücke	-11.7796
▁frites	-11.7796
▁prior	-11.7796
▁shelter	-11.7796
▁sonntags	-11.7796
▁zurückkam	-11.7796
nebelt	-11.7796
▁absorb	-11.7796
▁geöffnet	-11.7796
▁subtropi	-11.7796
zweifl	-11.7796
ölk	-11.7796
▁löschen	-11.7796
achstum	-11.7796
▁Eingang	-11.7796
▁Spezialität	-11.7796
▁aussteigen	-11.7796
▁erfreut	-11.7796
▁frame	-11.7796
▁reputation	-11.7796
▁solid	-11.7796
▁trenn	-11.7796
▁Hebrew	-11.7796
▁shining	-11.7796
urbulen	-11.7796
▁blink	-11.7796
rkundung	-11.7796
▁Trick	-11.7796
▁Tugend	-11.7796
▁taucht	-11.7796
ffentlichkeit	-11.7796
krug	-11.7796
schärft	-11.7796
▁Einstein	-11.7796
▁humm	-11.7796
▁schoss	-11.7796
gebunden	-11.7796
▁Geheimdienst	-11.7796
▁distance	-11.7796
▁herzlich	-11.7796
▁spann	-11.7796
▁vermute	-11.7796
männ	-11.7796
▁Aussage	-11.7796
▁Dänemark	-11.7796
▁Forschung	-11.7796
▁Köch	-11.7796
▁Würmer	-11.7796
▁abstra	-11.7796
▁fotografiert	-11.7796
▁Konnte	-11.7796
▁Speisekarte	-11.7796
ponsor	-11.7796
uxu	-11.7796
▁Gurke	-11.7796
▁Welpen	-11.7796
▁convert	-11.7796
▁section	-11.7796
▁unterging	-11.7796
ommutative	-11.7796
▁regelmäßig	-11.7796
▁anrufst	-11.7796
▁brown	-11.7796
▁rubber	-11.7796
spresso	-11.7797
▁laptop	-11.7797
Fiction	-11.7797
itäten	-11.7797
▁außerordentlich	-11.7797
▁etern	-11.7797
▁verkra	-11.7797
▁verriegelt	-11.7797
▁Gesang	-11.7797
▁astonish	-11.7797
▁schuldete	-11.7797
nstead	-11.7797
spro	-11.7797
▁Schaufenster	-11.7797
▁center	-11.7797
▁kochen	-11.7797
▁wages	-11.7797
etektiv	-11.7797
▁Göt	-11.7797
▁Syri	-11.7797
▁britische	-11.7797
haltsame	-11.7797
mutig	-11.7797
▁Indien	-11.7797
▁dasselbe	-11.7797
▁rutsch	-11.7797
▁stank	-11.7797
▁vermied	-11.7797
▁Keller	-11.7797
▁Netzpost	-11.7797
▁Rassis	-11.7797
▁gratuliert	-11.7797
▁lesbi	-11.7797
rampolin	-11.7797
▁Organisation	-11.7797
▁acquaintance	-11.7797
▁mustache	-11.7797
atalog	-11.7797
▁Britain	-11.7797
▁Jedi	-11.7797
▁protestierte	-11.7797
ompetent	-11.7797
satisf	-11.7797
▁nachhause	-11.7797
▁severe	-11.7797
▁verspielte	-11.7797
▁2012	-11.7797
▁Carlton	-11.7797
▁Rechtschreib	-11.7797
owadays	-11.7797
▁Vorgänge	-11.7797
▁anschau	-11.7797
▁overnight	-11.7797
spoon	-11.7797
▁Ehrlichkeit	-11.7797
▁overhear	-11.7797
▁Meteorologi	-11.7797
▁aufhörst	-11.7797
▁contra	-11.7797
llrot	-11.7797
▁Stockwerke	-11.7797
▁consume	-11.7797
▁stattfinden	-11.7797
realistisch	-11.7797
owjet	-11.7797
▁hiervon	-11.7797
▁tidy	-11.7797
▁Durcheinander	-11.7797
▁erneut	-11.7797
▁verrie	-11.7797
jährig	-11.7797
odil	-11.7797
▁Interlinguisti	-11.7797
blings	-11.7797
vermeid	-11.7797
▁Verlob	-11.7797
▁besitzen	-11.7797
▁content	-11.7797
▁pear	-11.7797
▁piss	-11.7797
▁tomato	-11.7797
diot	-11.7797
▁Bauern	-11.7797
▁Rakete	-11.7797
▁defend	-11.7797
▁mask	-11.7797
▁permitted	-11.7797
btheit	-11.7797
haltung	-11.7797
▁Boot	-11.7797
ulti	-11.7797
ligent	-11.7797
erfas	-11.7797
▁Oberschul	-11.7797
▁mächtiger	-11.7797
rechnung	-11.7797
▁committee	-11.7797
▁Wartezimmer	-11.7797
arbeitungs	-11.7797
nflict	-11.7797
petto	-11.7797
▁Frühjahr	-11.7797
▁Gläser	-11.7797
▁Schnappsch	-11.7797
▁Speak	-11.7797
▁Engel	-11.7797
▁tausch	-11.7797
änze	-11.7797
▁mathematician	-11.7797
▁mammal	-11.7797
▁erfor	-11.7797
▁2003	-11.7797
▁Gegenteil	-11.7797
▁pollution	-11.7797
schweige	-11.7797
▁astrolog	-11.7797
▁räumte	-11.7797
▁transport	-11.7797
▁representative	-11.7797
gefertigt	-11.7797
▁1992	-11.7797
▁embass	-11.7797
▁focus	-11.7797
▁resourceful	-11.7797
▁Corr	-11.7797
▁Russell	-11.7797
▁ström	-11.7797
sthesi	-11.7797
▁Derartige	-11.7797
▁wärmer	-11.7797
▁Geburt	-11.7797
▁truck	-11.7797
nträger	-11.7797
▁Verletzungen	-11.7797
▁Ostern	-11.7797
▁Loui	-11.7797
▁Kleinigkeiten	-11.7797
▁Armenien	-11.7797
▁ahnte	-11.7797
▁Axt	-11.7797
▁bestieg	-11.7797
▁Handschuhe	-11.7797
▁anzusprechen	-11.7797
▁bleich	-11.7797
▁Akten	-11.7797
▁erzogen	-11.7797
▁gym	-11.7797
▁competition	-11.7797
▁Sportwagen	-11.7797
phen	-11.7797
▁entwickelt	-11.7797
▁flood	-11.7797
friger	-11.7797
▁Röm	-11.7797
▁circ	-11.7798
▁lazy	-11.7798
▁1920	-11.7798
▁schiefgehen	-11.7798
▁Bevorzug	-11.7798
gespart	-11.7798
zäh	-11.7798
▁Unterschrift	-11.7798
▁Klamotten	-11.7798
▁Unmöglich	-11.7798
▁declar	-11.7798
tanken	-11.7798
▁Geräte	-11.7798
▁problematisch	-11.7798
▁Nonon	-11.7798
schuss	-11.7798
▁Melo	-11.7798
▁ausging	-11.7798
ezo	-11.7798
richter	-11.7798
▁Bosni	-11.7798
▁considerate	-11.7798
▁nützlich	-11.7798
▁schlicht	-11.7798
rbu	-11.7798
▁Genie	-11.7798
▁Karton	-11.7798
rchite	-11.7798
etho	-11.7798
▁crack	-11.7798
turb	-11.7798
▁Vorgarten	-11.7798
bition	-11.7798
▁beggar	-11.7798
▁cheerful	-11.7798
▁standards	-11.7798
▁Anwesenheit	-11.7798
▁estate	-11.7798
▁Oriental	-11.7798
▁Pflicht	-11.7798
mächtig	-11.7798
▁Detail	-11.7798
kova	-11.7798
▁Wurde	-11.7798
▁Strahl	-11.7798
▁plate	-11.7798
▁protestieren	-11.7798
▁rumor	-11.7798
▁UN	-11.7798
▁erzeugt	-11.7798
▁leaders	-11.7798
▁lobt	-11.7798
eanut	-11.7798
▁Beeil	-11.7798
▁färb	-11.7798
▁10:00	-11.7798
äffe	-11.7798
▁Dumme	-11.7798
hrank	-11.7798
▁Emperor	-11.7798
▁Festland	-11.7798
▁schwul	-11.7798
▁teilnehmen	-11.7798
▁mainland	-11.7798
▁Pfeil	-11.7798
▁umarm	-11.7798
▁exploit	-11.7798
mütig	-11.7798
▁cooperati	-11.7798
brechen	-11.7798
▁impos	-11.7798
▁effective	-11.7798
▁kürz	-11.7798
rida	-11.7798
▁widerstehen	-11.7798
ummi	-11.7798
▁Punkt	-11.7799
▁1999	-11.7799
▁Setz	-11.7799
▁bedauerliche	-11.7799
▁vertragen	-11.7799
▁urge	-11.7799
▁Handschrift	-11.7799
▁Lebensmittel	-11.7799
maged	-11.7799
zeichnung	-11.7799
▁gesto	-11.7799
▁Entdeckung	-11.7799
usreichend	-11.7799
▁Birne	-11.7799
iplom	-11.7799
▁hingerissen	-11.7799
▁vice	-11.7799
▁Chicken	-11.7799
▁Turm	-11.7799
▁Mittelalter	-11.7799
▁Nutze	-11.7799
▁unterhielt	-11.7799
▁besaß	-11.7799
vertreib	-11.7799
Dieberei	-11.7799
apier	-11.7799
▁mug	-11.7799
▁lemon	-11.7799
▁offenbar	-11.7799
▁Erdbe	-11.7799
▁version	-11.7799
hrimp	-11.7799
▁indis	-11.7799
▁mitteilen	-11.7799
▁semidefinit	-11.7799
▁Armenia	-11.7799
▁hesita	-11.7799
erbai	-11.7799
▁Gramm	-11.7799
▁Geschwindigkeit	-11.7799
▁untersuchen	-11.7799
▁befördert	-11.7799
▁national	-11.7799
32	-11.78
▁motion	-11.78
▁Risiko	-11.78
▁label	-11.78
▁Atom	-11.78
▁Sturz	-11.78
▁delight	-11.78
auftritt	-11.78
▁Nächte	-11.78
▁Wettbewerb	-11.78
▁gestri	-11.78
▁Start	-11.78
▁pleasure	-11.78
schrecke	-11.78
▁further	-11.78
▁Point	-11.78
▁vermisse	-11.78
ppetit	-11.78
▁umgehend	-11.78
▁Kongress	-11.78
gebell	-11.78
lehrt	-11.78
▁compose	-11.78
▁hineingehen	-11.78
▁tätigen	-11.78
▁ditch	-11.78
ycho	-11.78
▁Abreise	-11.78
▁flour	-11.78
▁beraten	-11.78
obster	-11.78
▁Kerze	-11.78
▁stütz	-11.78
▁resource	-11.78
▁blute	-11.78
▁rasiert	-11.78
▁Autounfall	-11.78
▁däm	-11.78
▁Bewerb	-11.78
burg	-11.7801
▁Atlantic	-11.7801
▁accompli	-11.7801
▁ashes	-11.7801
▁volu	-11.7801
▁westliche	-11.7801
▁loose	-11.7801
▁Karrier	-11.7801
▁201	-11.7801
▁39	-11.7801
▁3,000	-11.7801
reuz	-11.7801
▁alarm	-11.7801
▁übrigens	-11.7801
▁grenzt	-11.7801
▁Import	-11.7801
nstrument	-11.7801
macher	-11.7801
▁Flü	-11.7801
▁Zauberin	-11.7801
▁trash	-11.7801
▁baff	-11.7801
▁192	-11.7801
▁25	-11.7801
▁Fresh	-11.7801
▁Somebody	-11.7802
▁Sym	-11.7802
▁provo	-11.7802
▁Profi	-11.7802
▁medal	-11.7802
schnee	-11.7802
gerissen	-11.7802
▁durchgelesen	-11.7802
▁thread	-11.7802
▁prett	-11.7802
▁Reze	-11.7802
▁bahnte	-11.7802
▁histori	-11.7802
▁rette	-11.7802
pelz	-11.7802
▁Unterbr	-11.7802
▁unterschreiben	-11.7802
erstreut	-11.7802
▁auswärts	-11.7802
▁exception	-11.7802
▁Muster	-11.7802
▁Hummer	-11.7802
▁Zunge	-11.7802
▁sold	-11.7802
▁geschenkt	-11.7802
▁getrunken	-11.7802
▁permit	-11.7802
▁Königreich	-11.7802
▁Jedermann	-11.7803
▁faint	-11.7803
▁Schwach	-11.7803
▁complex	-11.7803
▁Irish	-11.7803
verfolg	-11.7803
colon	-11.7803
▁react	-11.7803
▁Anstr	-11.7803
owboy	-11.7803
▁Begriff	-11.7803
▁otherwise	-11.7803
▁reality	-11.7803
anzug	-11.7803
▁shock	-11.7803
▁rocket	-11.7803
▁tough	-11.7804
▁Weltraum	-11.7804
▁dahinter	-11.7804
▁mysteri	-11.7804
▁labo	-11.7804
▁arsen	-11.7804
▁coward	-11.7804
▁Leib	-11.7804
ongress	-11.7804
▁enthalten	-11.7804
▁Hill	-11.7804
▁Klaus	-11.7804
▁Know	-11.7804
▁erheb	-11.7804
▁Dreck	-11.7805
▁zündet	-11.7805
▁beendete	-11.7805
▁plow	-11.7805
schränk	-11.7805
uke	-11.7805
▁abholen	-11.7805
▁Sitten	-11.7805
▁galt	-11.7806
▁nightmar	-11.7806
▁Ages	-11.7806
▁Vertrag	-11.7807
bewahren	-11.7807
endungen	-11.7807
kühl	-11.7807
hemd	-11.7807
▁Besitz	-11.7807
▁erwies	-11.7807
▁Andrew	-11.7807
▁beginnt	-11.7807
▁Promi	-11.7807
▁Nagel	-11.7807
oline	-11.7807
▁zurückgelassen	-11.7808
▁Zustand	-11.7808
▁heiter	-11.7808
▁slight	-11.7808
würdige	-11.7808
▁Sängerin	-11.7808
▁bewegt	-11.7808
▁objection	-11.7808
▁Merk	-11.7808
ixel	-11.7808
▁naiv	-11.7808
▁aufzupassen	-11.7808
▁neck	-11.7808
▁fließend	-11.7809
▁Verlie	-11.7809
▁grant	-11.7809
▁Heim	-11.7809
▁Mont	-11.7809
inierende	-11.7809
▁Flitt	-11.7809
hüte	-11.7809
üssel	-11.7809
▁January	-11.7809
▁begrüßt	-11.7809
scheiße	-11.7809
fekt	-11.7809
▁Italienisch	-11.7809
▁Posten	-11.7809
▁Szene	-11.781
▁sensi	-11.781
▁peppe	-11.781
▁oil	-11.781
▁acce	-11.781
lbern	-11.781
▁Antrag	-11.781
▁comb	-11.781
garten	-11.781
▁bekümmert	-11.781
ßbar	-11.781
▁purse	-11.781
ovariant	-11.781
▁dreihundert	-11.7811
▁ador	-11.7811
schenkt	-11.7811
▁Cup	-11.7811
▁Kinderspiel	-11.7811
▁Vorteil	-11.7811
▁Edo	-11.7811
arriere	-11.7811
▁Satzende	-11.7811
▁hog	-11.7811
gekehrt	-11.7812
rika	-11.7812
zöger	-11.7812
▁pace	-11.7812
▁math	-11.7812
▁ausgesprochen	-11.7813
▁fellow	-11.7813
▁Liby	-11.7813
▁Sea	-11.7813
▁boil	-11.7813
▁derart	-11.7813
leiste	-11.7813
▁butterfl	-11.7814
▁geschaffen	-11.7814
▁Ehren	-11.7815
▁Ross	-11.7815
▁Regi	-11.7815
▁betrü	-11.7815
ackg	-11.7815
▁aussuchen	-11.7815
▁Hausarbeit	-11.7815
▁trace	-11.7815
▁fordert	-11.7815
▁Schein	-11.7815
▁beans	-11.7816
▁justice	-11.7816
realistic	-11.7816
▁nä	-11.7816
▁verlockender	-11.7816
▁properly	-11.7817
natom	-11.7817
neigt	-11.7817
ometer	-11.7817
▁path	-11.7817
näht	-11.7817
▁brew	-11.7817
iraffe	-11.7818
awa	-11.7818
▁copy	-11.7818
▁lauschte	-11.7818
▁verlaufen	-11.7818
▁Geheimnisse	-11.7818
nsult	-11.7819
▁Bade	-11.7819
▁klagt	-11.7819
▁Durch	-11.7819
▁Wovo	-11.782
stumm	-11.782
▁Bettler	-11.782
▁Nord	-11.782
▁despi	-11.782
▁vig	-11.782
▁candle	-11.7821
▁untre	-11.7821
elhaft	-11.7821
orme	-11.7821
▁endless	-11.7821
▁Amerikanerin	-11.7821
▁Spinne	-11.7821
▁momentan	-11.7822
▁herrlich	-11.7822
inker	-11.7822
kalen	-11.7822
▁thesis	-11.7822
esday	-11.7823
infallsreich	-11.7823
gestattet	-11.7823
▁annu	-11.7823
▁Leg	-11.7823
herde	-11.7824
▁Butter	-11.7824
▁Schwarze	-11.7824
▁enable	-11.7825
structive	-11.7825
▁flatter	-11.7826
▁Haut	-11.7827
▁mitbringen	-11.7827
▁erhielt	-11.7827
▁Artus	-11.7827
▁zweiund	-11.7827
ehnte	-11.7828
▁hinab	-11.7828
▁mode	-11.7828
▁Bü	-11.7829
▁Gründe	-11.783
▁Hose	-11.7831
▁remo	-11.7831
▁Stur	-11.7831
orra	-11.7832
▁Doppel	-11.7832
▁argued	-11.7832
useinandersetz	-11.7832
streichelt	-11.7833
▁Finnis	-11.7833
▁runter	-11.7833
▁Stech	-11.7833
▁Band	-11.7833
eiblich	-11.7833
▁abgeben	-11.7834
▁launch	-11.7834
▁überfallen	-11.7834
zeitig	-11.7835
▁realisier	-11.7835
▁Comp	-11.7835
isieren	-11.7836
ingdom	-11.7836
▁Walf	-11.7836
▁mü	-11.7837
▁kontrollier	-11.7837
eißig	-11.7837
schmerz	-11.7837
▁vergeben	-11.7837
erfrisch	-11.7838
▁racis	-11.7838
liz	-11.7838
infant	-11.7839
usiness	-11.7839
▁verziehen	-11.7839
wick	-11.784
▁pic	-11.7841
▁Mind	-11.7841
▁fend	-11.7842
sacht	-11.7842
nalys	-11.7842
orous	-11.7842
ities	-11.7843
▁grob	-11.7843
▁Beam	-11.7844
▁Semi	-11.7845
▁Schneeb	-11.7846
▁renovier	-11.7846
▁Extr	-11.7846
▁verehr	-11.7847
sheets	-11.7848
▁explo	-11.7849
regung	-11.7849
▁Ethi	-11.785
ambus	-11.7851
▁fließ	-11.7852
▁personally	-11.7852
onster	-11.7853
▁platzt	-11.7853
▁beieinander	-11.7853
▁umzubringen	-11.7855
▁Besen	-11.7855
▁Verletz	-11.7855
▁Gep	-11.7857
industri	-11.7858
▁Jill	-11.786
▁helpful	-11.786
▁Hil	-11.7861
hauen	-11.7863
indows	-11.7863
uess	-11.7863
▁unauf	-11.7863
drogen	-11.7865
▁Kleides	-11.7865
alas	-11.7866
▁dish	-11.7867
▁Fir	-11.7868
▁Far	-11.7868
▁click	-11.7869
äge	-11.787
isfeld	-11.787
bürge	-11.787
wirkende	-11.7872
schwätz	-11.7872
▁Erfolges	-11.7872
olleyball	-11.7872
▁grave	-11.7873
▁expose	-11.7874
▁investier	-11.7876
▁räts	-11.7876
▁Einkommen	-11.7876
eleg	-11.7876
igur	-11.7877
▁zumute	-11.7878
schämt	-11.7878
geringsten	-11.7878
fiction	-11.7879
▁attend	-11.788
▁fürchtete	-11.7881
▁spy	-11.7881
▁Seife	-11.7882
▁thin	-11.7883
▁skate	-11.7883
▁conserv	-11.7884
▁cave	-11.7885
obey	-11.7888
bett	-11.7888
▁moralisch	-11.7889
▁Jahrestag	-11.789
▁Haw	-11.7895
j	-12.0655
„	-14.0234
U	-14.0235
Z	-14.0236
V	-14.0237
J	-14.0238
P	-14.0239
G	-14.024
